{
  "version": "1.0",
  "truncation": null,
  "padding": null,
  "added_tokens": [
    {
      "id": 0,
      "special": true,
      "content": "[UNK]",
      "single_word": false,
      "lstrip": false,
      "rstrip": false,
      "normalized": false
    },
    {
      "id": 1,
      "special": true,
      "content": "[CLS]",
      "single_word": false,
      "lstrip": false,
      "rstrip": false,
      "normalized": false
    },
    {
      "id": 2,
      "special": true,
      "content": "[SEP]",
      "single_word": false,
      "lstrip": false,
      "rstrip": false,
      "normalized": false
    },
    {
      "id": 3,
      "special": true,
      "content": "[PAD]",
      "single_word": false,
      "lstrip": false,
      "rstrip": false,
      "normalized": false
    },
    {
      "id": 4,
      "special": true,
      "content": "[MASK]",
      "single_word": false,
      "lstrip": false,
      "rstrip": false,
      "normalized": false
    }
  ],
  "normalizer": null,
  "pre_tokenizer": {
    "type": "Sequence",
    "pretokenizers": [
      {
        "type": "Whitespace"
      }
    ]
  },
  "post_processor": {
    "type": "TemplateProcessing",
    "single": [
      {
        "SpecialToken": {
          "id": "[CLS]",
          "type_id": 0
        }
      },
      {
        "Sequence": {
          "id": "A",
          "type_id": 0
        }
      },
      {
        "SpecialToken": {
          "id": "[SEP]",
          "type_id": 0
        }
      }
    ],
    "pair": [
      {
        "SpecialToken": {
          "id": "[CLS]",
          "type_id": 0
        }
      },
      {
        "Sequence": {
          "id": "A",
          "type_id": 0
        }
      },
      {
        "SpecialToken": {
          "id": "[SEP]",
          "type_id": 0
        }
      },
      {
        "Sequence": {
          "id": "B",
          "type_id": 1
        }
      },
      {
        "SpecialToken": {
          "id": "[SEP]",
          "type_id": 1
        }
      }
    ],
    "special_tokens": {
      "[CLS]": {
        "id": "[CLS]",
        "ids": [
          1
        ],
        "tokens": [
          "[CLS]"
        ]
      },
      "[SEP]": {
        "id": "[SEP]",
        "ids": [
          2
        ],
        "tokens": [
          "[SEP]"
        ]
      }
    }
  },
  "decoder": {
    "type": "WordPiece",
    "prefix": "##",
    "cleanup": true
  },
  "model": {
    "type": "BPE",
    "dropout": null,
    "unk_token": "[UNK]",
    "continuing_subword_prefix": "##",
    "end_of_word_suffix": null,
    "fuse_unk": false,
    "vocab": {
      "[UNK]": 0,
      "[CLS]": 1,
      "[SEP]": 2,
      "[PAD]": 3,
      "[MASK]": 4,
      "\u0010": 5,
      "\u001b": 6,
      "!": 7,
      "\"": 8,
      "#": 9,
      "$": 10,
      "%": 11,
      "&": 12,
      "'": 13,
      "(": 14,
      ")": 15,
      "*": 16,
      "+": 17,
      ",": 18,
      "-": 19,
      ".": 20,
      "/": 21,
      "0": 22,
      "1": 23,
      "2": 24,
      "3": 25,
      "4": 26,
      "5": 27,
      "6": 28,
      "7": 29,
      "8": 30,
      "9": 31,
      ":": 32,
      ";": 33,
      "<": 34,
      "=": 35,
      ">": 36,
      "?": 37,
      "@": 38,
      "A": 39,
      "B": 40,
      "C": 41,
      "D": 42,
      "E": 43,
      "F": 44,
      "G": 45,
      "H": 46,
      "I": 47,
      "J": 48,
      "K": 49,
      "L": 50,
      "M": 51,
      "N": 52,
      "O": 53,
      "P": 54,
      "Q": 55,
      "R": 56,
      "S": 57,
      "T": 58,
      "U": 59,
      "V": 60,
      "W": 61,
      "X": 62,
      "Y": 63,
      "Z": 64,
      "[": 65,
      "\\": 66,
      "]": 67,
      "^": 68,
      "_": 69,
      "`": 70,
      "a": 71,
      "b": 72,
      "c": 73,
      "d": 74,
      "e": 75,
      "f": 76,
      "g": 77,
      "h": 78,
      "i": 79,
      "j": 80,
      "k": 81,
      "l": 82,
      "m": 83,
      "n": 84,
      "o": 85,
      "p": 86,
      "q": 87,
      "r": 88,
      "s": 89,
      "t": 90,
      "u": 91,
      "v": 92,
      "w": 93,
      "x": 94,
      "y": 95,
      "z": 96,
      "{": 97,
      "|": 98,
      "}": 99,
      "~": 100,
      "": 101,
      "¡": 102,
      "¢": 103,
      "£": 104,
      "¥": 105,
      "§": 106,
      "©": 107,
      "«": 108,
      "­": 109,
      "®": 110,
      "¯": 111,
      "°": 112,
      "²": 113,
      "´": 114,
      "·": 115,
      "º": 116,
      "»": 117,
      "½": 118,
      "¿": 119,
      "À": 120,
      "Á": 121,
      "Ä": 122,
      "Å": 123,
      "Æ": 124,
      "Ç": 125,
      "È": 126,
      "É": 127,
      "Í": 128,
      "Ó": 129,
      "Ö": 130,
      "×": 131,
      "Ü": 132,
      "ß": 133,
      "à": 134,
      "á": 135,
      "â": 136,
      "ã": 137,
      "ä": 138,
      "å": 139,
      "æ": 140,
      "ç": 141,
      "è": 142,
      "é": 143,
      "ê": 144,
      "ë": 145,
      "ì": 146,
      "í": 147,
      "î": 148,
      "ï": 149,
      "ð": 150,
      "ñ": 151,
      "ò": 152,
      "ó": 153,
      "ô": 154,
      "õ": 155,
      "ö": 156,
      "ø": 157,
      "ù": 158,
      "ú": 159,
      "û": 160,
      "ü": 161,
      "ý": 162,
      "þ": 163,
      "ā": 164,
      "ă": 165,
      "ą": 166,
      "ć": 167,
      "č": 168,
      "đ": 169,
      "ē": 170,
      "ę": 171,
      "ğ": 172,
      "ī": 173,
      "İ": 174,
      "ı": 175,
      "ł": 176,
      "ń": 177,
      "ō": 178,
      "ő": 179,
      "œ": 180,
      "ś": 181,
      "ş": 182,
      "š": 183,
      "ţ": 184,
      "ū": 185,
      "ź": 186,
      "ż": 187,
      "ž": 188,
      "ǝ": 189,
      "ș": 190,
      "ț": 191,
      "ɐ": 192,
      "ɔ": 193,
      "ə": 194,
      "ɛ": 195,
      "ɥ": 196,
      "ɪ": 197,
      "ɹ": 198,
      "ʇ": 199,
      "ʖ": 200,
      "ʘ": 201,
      "ˈ": 202,
      "˙": 203,
      "̀": 204,
      "́": 205,
      "̂": 206,
      "̃": 207,
      "̄": 208,
      "̅": 209,
      "̆": 210,
      "̇": 211,
      "̈": 212,
      "̉": 213,
      "̊": 214,
      "̋": 215,
      "̌": 216,
      "̍": 217,
      "̎": 218,
      "̏": 219,
      "̐": 220,
      "̑": 221,
      "̒": 222,
      "̓": 223,
      "̔": 224,
      "̕": 225,
      "̖": 226,
      "̗": 227,
      "̘": 228,
      "̙": 229,
      "̚": 230,
      "̛": 231,
      "̜": 232,
      "̝": 233,
      "̞": 234,
      "̟": 235,
      "̠": 236,
      "̡": 237,
      "̢": 238,
      "̣": 239,
      "̤": 240,
      "̥": 241,
      "̦": 242,
      "̧": 243,
      "̨": 244,
      "̩": 245,
      "̪": 246,
      "̫": 247,
      "̬": 248,
      "̭": 249,
      "̮": 250,
      "̯": 251,
      "̰": 252,
      "̱": 253,
      "̲": 254,
      "̳": 255,
      "̴": 256,
      "̵": 257,
      "̶": 258,
      "̷": 259,
      "̸": 260,
      "̹": 261,
      "̺": 262,
      "̻": 263,
      "̼": 264,
      "̽": 265,
      "̾": 266,
      "̿": 267,
      "̀": 268,
      "́": 269,
      "͂": 270,
      "̓": 271,
      "̈́": 272,
      "ͅ": 273,
      "͆": 274,
      "͇": 275,
      "͈": 276,
      "͉": 277,
      "͊": 278,
      "͋": 279,
      "͌": 280,
      "͍": 281,
      "͎": 282,
      "͏": 283,
      "͐": 284,
      "͑": 285,
      "͒": 286,
      "͓": 287,
      "͔": 288,
      "͕": 289,
      "͖": 290,
      "͗": 291,
      "͘": 292,
      "͙": 293,
      "͚": 294,
      "͛": 295,
      "͜": 296,
      "͝": 297,
      "͞": 298,
      "͟": 299,
      "͠": 300,
      "͡": 301,
      "͢": 302,
      "ͣ": 303,
      "ͤ": 304,
      "ͥ": 305,
      "ͦ": 306,
      "ͧ": 307,
      "ͨ": 308,
      "ͩ": 309,
      "ͪ": 310,
      "ͫ": 311,
      "ͬ": 312,
      "ͭ": 313,
      "ͮ": 314,
      "ͯ": 315,
      "Α": 316,
      "Γ": 317,
      "Δ": 318,
      "Ε": 319,
      "Η": 320,
      "Ι": 321,
      "Κ": 322,
      "Μ": 323,
      "Ν": 324,
      "Ο": 325,
      "Π": 326,
      "Σ": 327,
      "Τ": 328,
      "ά": 329,
      "έ": 330,
      "ή": 331,
      "ί": 332,
      "α": 333,
      "β": 334,
      "γ": 335,
      "δ": 336,
      "ε": 337,
      "ζ": 338,
      "η": 339,
      "θ": 340,
      "ι": 341,
      "κ": 342,
      "λ": 343,
      "μ": 344,
      "ν": 345,
      "ξ": 346,
      "ο": 347,
      "π": 348,
      "ρ": 349,
      "ς": 350,
      "σ": 351,
      "τ": 352,
      "υ": 353,
      "φ": 354,
      "χ": 355,
      "ψ": 356,
      "ω": 357,
      "ό": 358,
      "ύ": 359,
      "ώ": 360,
      "А": 361,
      "Б": 362,
      "В": 363,
      "Г": 364,
      "Д": 365,
      "Е": 366,
      "З": 367,
      "И": 368,
      "К": 369,
      "Л": 370,
      "М": 371,
      "Н": 372,
      "О": 373,
      "П": 374,
      "Р": 375,
      "С": 376,
      "Т": 377,
      "У": 378,
      "Ч": 379,
      "Э": 380,
      "Я": 381,
      "а": 382,
      "б": 383,
      "в": 384,
      "г": 385,
      "д": 386,
      "е": 387,
      "ж": 388,
      "з": 389,
      "и": 390,
      "й": 391,
      "к": 392,
      "л": 393,
      "м": 394,
      "н": 395,
      "о": 396,
      "п": 397,
      "р": 398,
      "с": 399,
      "т": 400,
      "у": 401,
      "ф": 402,
      "х": 403,
      "ц": 404,
      "ч": 405,
      "ш": 406,
      "щ": 407,
      "ы": 408,
      "ь": 409,
      "э": 410,
      "ю": 411,
      "я": 412,
      "ё": 413,
      "є": 414,
      "і": 415,
      "ї": 416,
      "ј": 417,
      "҉": 418,
      "א": 419,
      "ב": 420,
      "ד": 421,
      "ה": 422,
      "ו": 423,
      "ח": 424,
      "י": 425,
      "כ": 426,
      "ל": 427,
      "ם": 428,
      "מ": 429,
      "נ": 430,
      "ע": 431,
      "ר": 432,
      "ש": 433,
      "ת": 434,
      "أ": 435,
      "ا": 436,
      "ب": 437,
      "ة": 438,
      "ت": 439,
      "ج": 440,
      "ح": 441,
      "د": 442,
      "ر": 443,
      "س": 444,
      "ش": 445,
      "ع": 446,
      "ف": 447,
      "ق": 448,
      "ك": 449,
      "ل": 450,
      "م": 451,
      "ن": 452,
      "ه": 453,
      "و": 454,
      "ي": 455,
      "َ": 456,
      "ं": 457,
      "क": 458,
      "त": 459,
      "न": 460,
      "प": 461,
      "म": 462,
      "य": 463,
      "र": 464,
      "ल": 465,
      "ह": 466,
      "ा": 467,
      "ि": 468,
      "ी": 469,
      "े": 470,
      "्": 471,
      "া": 472,
      "்": 473,
      "ಠ": 474,
      "ಥ": 475,
      "ง": 476,
      "็": 477,
      "้": 478,
      "ຈ": 479,
      "༼": 480,
      "༽": 481,
      "ლ": 482,
      "ᴉ": 483,
      "ᵒ": 484,
      "​": 485,
      "‍": 486,
      "–": 487,
      "—": 488,
      "―": 489,
      "‘": 490,
      "’": 491,
      "“": 492,
      "”": 493,
      "„": 494,
      "•": 495,
      "…": 496,
      "‿": 497,
      "€": 498,
      "⃣": 499,
      "℅": 500,
      "™": 501,
      "→": 502,
      "∆": 503,
      "√": 504,
      "∞": 505,
      "≠": 506,
      "─": 507,
      "━": 508,
      "┻": 509,
      "═": 510,
      "╯": 511,
      "▀": 512,
      "▁": 513,
      "▂": 514,
      "▃": 515,
      "▄": 516,
      "▅": 517,
      "▆": 518,
      "▇": 519,
      "█": 520,
      "░": 521,
      "▒": 522,
      "▓": 523,
      "▔": 524,
      "■": 525,
      "►": 526,
      "◀": 527,
      "●": 528,
      "◕": 529,
      "★": 530,
      "☆": 531,
      "☐": 532,
      "☑": 533,
      "☝": 534,
      "☞": 535,
      "☹": 536,
      "☺": 537,
      "♀": 538,
      "♂": 539,
      "♡": 540,
      "♥": 541,
      "♪": 542,
      "♫": 543,
      "⚠": 544,
      "✅": 545,
      "✊": 546,
      "✋": 547,
      "✌": 548,
      "✓": 549,
      "✔": 550,
      "❌": 551,
      "❤": 552,
      "➡": 553,
      "➣": 554,
      "⠀": 555,
      "⢀": 556,
      "⬛": 557,
      "⬜": 558,
      "⭐": 559,
      "、": 560,
      "。": 561,
      "々": 562,
      "「": 563,
      "」": 564,
      "【": 565,
      "】": 566,
      "ぁ": 567,
      "あ": 568,
      "い": 569,
      "う": 570,
      "え": 571,
      "お": 572,
      "か": 573,
      "が": 574,
      "き": 575,
      "ぎ": 576,
      "く": 577,
      "ぐ": 578,
      "け": 579,
      "げ": 580,
      "こ": 581,
      "ご": 582,
      "さ": 583,
      "し": 584,
      "じ": 585,
      "す": 586,
      "ず": 587,
      "せ": 588,
      "そ": 589,
      "ぞ": 590,
      "た": 591,
      "だ": 592,
      "ち": 593,
      "っ": 594,
      "つ": 595,
      "て": 596,
      "で": 597,
      "と": 598,
      "ど": 599,
      "な": 600,
      "に": 601,
      "ね": 602,
      "の": 603,
      "は": 604,
      "ば": 605,
      "び": 606,
      "ぶ": 607,
      "へ": 608,
      "べ": 609,
      "ほ": 610,
      "ま": 611,
      "み": 612,
      "む": 613,
      "め": 614,
      "も": 615,
      "ゃ": 616,
      "や": 617,
      "ょ": 618,
      "よ": 619,
      "ら": 620,
      "り": 621,
      "る": 622,
      "れ": 623,
      "ろ": 624,
      "わ": 625,
      "を": 626,
      "ん": 627,
      "ア": 628,
      "ィ": 629,
      "イ": 630,
      "ウ": 631,
      "ェ": 632,
      "エ": 633,
      "オ": 634,
      "カ": 635,
      "ガ": 636,
      "キ": 637,
      "ク": 638,
      "グ": 639,
      "ケ": 640,
      "ゲ": 641,
      "コ": 642,
      "ゴ": 643,
      "サ": 644,
      "ザ": 645,
      "シ": 646,
      "ジ": 647,
      "ス": 648,
      "ズ": 649,
      "セ": 650,
      "ソ": 651,
      "タ": 652,
      "ダ": 653,
      "チ": 654,
      "ッ": 655,
      "ツ": 656,
      "テ": 657,
      "デ": 658,
      "ト": 659,
      "ド": 660,
      "ナ": 661,
      "ニ": 662,
      "ネ": 663,
      "ノ": 664,
      "ハ": 665,
      "バ": 666,
      "パ": 667,
      "ビ": 668,
      "ピ": 669,
      "フ": 670,
      "ブ": 671,
      "プ": 672,
      "ベ": 673,
      "ボ": 674,
      "ポ": 675,
      "マ": 676,
      "ミ": 677,
      "ム": 678,
      "メ": 679,
      "モ": 680,
      "ャ": 681,
      "ヤ": 682,
      "ュ": 683,
      "ョ": 684,
      "ラ": 685,
      "リ": 686,
      "ル": 687,
      "レ": 688,
      "ロ": 689,
      "ワ": 690,
      "ン": 691,
      "・": 692,
      "ー": 693,
      "ヽ": 694,
      "一": 695,
      "三": 696,
      "上": 697,
      "下": 698,
      "不": 699,
      "世": 700,
      "中": 701,
      "事": 702,
      "二": 703,
      "人": 704,
      "今": 705,
      "他": 706,
      "付": 707,
      "代": 708,
      "以": 709,
      "会": 710,
      "体": 711,
      "何": 712,
      "作": 713,
      "你": 714,
      "使": 715,
      "俺": 716,
      "倍": 717,
      "入": 718,
      "全": 719,
      "公": 720,
      "内": 721,
      "再": 722,
      "出": 723,
      "分": 724,
      "初": 725,
      "前": 726,
      "力": 727,
      "加": 728,
      "動": 729,
      "務": 730,
      "化": 731,
      "取": 732,
      "可": 733,
      "合": 734,
      "同": 735,
      "名": 736,
      "味": 737,
      "員": 738,
      "問": 739,
      "回": 740,
      "国": 741,
      "園": 742,
      "在": 743,
      "地": 744,
      "報": 745,
      "場": 746,
      "売": 747,
      "変": 748,
      "外": 749,
      "多": 750,
      "大": 751,
      "女": 752,
      "好": 753,
      "子": 754,
      "学": 755,
      "安": 756,
      "定": 757,
      "実": 758,
      "家": 759,
      "対": 760,
      "小": 761,
      "少": 762,
      "年": 763,
      "度": 764,
      "当": 765,
      "後": 766,
      "心": 767,
      "思": 768,
      "性": 769,
      "悪": 770,
      "情": 771,
      "意": 772,
      "感": 773,
      "我": 774,
      "戦": 775,
      "所": 776,
      "手": 777,
      "投": 778,
      "持": 779,
      "政": 780,
      "教": 781,
      "文": 782,
      "新": 783,
      "方": 784,
      "日": 785,
      "明": 786,
      "時": 787,
      "曲": 788,
      "書": 789,
      "最": 790,
      "月": 791,
      "有": 792,
      "本": 793,
      "来": 794,
      "東": 795,
      "業": 796,
      "機": 797,
      "正": 798,
      "死": 799,
      "民": 800,
      "気": 801,
      "法": 802,
      "流": 803,
      "無": 804,
      "物": 805,
      "猫": 806,
      "現": 807,
      "理": 808,
      "生": 809,
      "用": 810,
      "画": 811,
      "発": 812,
      "白": 813,
      "的": 814,
      "目": 815,
      "相": 816,
      "真": 817,
      "知": 818,
      "社": 819,
      "私": 820,
      "立": 821,
      "結": 822,
      "続": 823,
      "考": 824,
      "者": 825,
      "能": 826,
      "自": 827,
      "良": 828,
      "行": 829,
      "要": 830,
      "見": 831,
      "解": 832,
      "言": 833,
      "記": 834,
      "話": 835,
      "語": 836,
      "議": 837,
      "買": 838,
      "込": 839,
      "追": 840,
      "通": 841,
      "連": 842,
      "違": 843,
      "部": 844,
      "金": 845,
      "長": 846,
      "開": 847,
      "間": 848,
      "関": 849,
      "面": 850,
      "音": 851,
      "題": 852,
      "食": 853,
      "高": 854,
      "가": 855,
      "는": 856,
      "다": 857,
      "아": 858,
      "에": 859,
      "의": 860,
      "이": 861,
      "하": 862,
      "한": 863,
      "️": 864,
      "﻿": 865,
      "！": 866,
      "（": 867,
      "）": 868,
      "，": 869,
      "１": 870,
      "：": 871,
      "？": 872,
      "Ａ": 873,
      "Ｅ": 874,
      "Ｏ": 875,
      "Ｔ": 876,
      "｀": 877,
      "ｅ": 878,
      "ｗ": 879,
      "～": 880,
      "･": 881,
      "ﾉ": 882,
      "ﾟ": 883,
      "🅰": 884,
      "🅱": 885,
      "🇫": 886,
      "🇷": 887,
      "🇸": 888,
      "🇺": 889,
      "🌊": 890,
      "🌶": 891,
      "🍆": 892,
      "🍑": 893,
      "🍕": 894,
      "🍝": 895,
      "🍿": 896,
      "🎉": 897,
      "🎵": 898,
      "🎶": 899,
      "🎺": 900,
      "🏃": 901,
      "🏻": 902,
      "🏼": 903,
      "🏽": 904,
      "🏾": 905,
      "🏿": 906,
      "🐌": 907,
      "🐍": 908,
      "🐙": 909,
      "🐶": 910,
      "🐸": 911,
      "👀": 912,
      "👁": 913,
      "👅": 914,
      "👈": 915,
      "👉": 916,
      "👊": 917,
      "👋": 918,
      "👌": 919,
      "👍": 920,
      "👎": 921,
      "👏": 922,
      "👦": 923,
      "👧": 924,
      "👨": 925,
      "👩": 926,
      "👺": 927,
      "💀": 928,
      "💁": 929,
      "💋": 930,
      "💕": 931,
      "💖": 932,
      "💙": 933,
      "💚": 934,
      "💜": 935,
      "💢": 936,
      "💥": 937,
      "💦": 938,
      "💧": 939,
      "💩": 940,
      "💪": 941,
      "💯": 942,
      "💰": 943,
      "💸": 944,
      "🔥": 945,
      "🔫": 946,
      "😀": 947,
      "😁": 948,
      "😂": 949,
      "😃": 950,
      "😄": 951,
      "😅": 952,
      "😆": 953,
      "😇": 954,
      "😈": 955,
      "😉": 956,
      "😊": 957,
      "😋": 958,
      "😍": 959,
      "😎": 960,
      "😏": 961,
      "😐": 962,
      "😑": 963,
      "😒": 964,
      "😔": 965,
      "😕": 966,
      "😘": 967,
      "😙": 968,
      "😛": 969,
      "😜": 970,
      "😝": 971,
      "😞": 972,
      "😠": 973,
      "😡": 974,
      "😢": 975,
      "😣": 976,
      "😤": 977,
      "😥": 978,
      "😧": 979,
      "😩": 980,
      "😫": 981,
      "😬": 982,
      "😭": 983,
      "😮": 984,
      "😰": 985,
      "😱": 986,
      "😲": 987,
      "😳": 988,
      "😷": 989,
      "😻": 990,
      "🙁": 991,
      "🙂": 992,
      "🙃": 993,
      "🙄": 994,
      "🙅": 995,
      "🙈": 996,
      "🙌": 997,
      "🙏": 998,
      "🚨": 999,
      "🚫": 1000,
      "🤔": 1001,
      "🤗": 1002,
      "🤘": 1003,
      "🤣": 1004,
      "##e": 1005,
      "##r": 1006,
      "##w": 1007,
      "##o": 1008,
      "##d": 1009,
      "##a": 1010,
      "##h": 1011,
      "##l": 1012,
      "##t": 1013,
      "##i": 1014,
      "##0": 1015,
      "##I": 1016,
      "##R": 1017,
      "##T": 1018,
      "##S": 1019,
      "##V": 1020,
      "##7": 1021,
      "##1": 1022,
      "##n": 1023,
      "##g": 1024,
      "##m": 1025,
      "##c": 1026,
      "##s": 1027,
      "##F": 1028,
      "##G": 1029,
      "##9": 1030,
      "##6": 1031,
      "##K": 1032,
      "##M": 1033,
      "##W": 1034,
      "##3": 1035,
      "##p": 1036,
      "##j": 1037,
      "##B": 1038,
      "##E": 1039,
      "##A": 1040,
      "##N": 1041,
      "##b": 1042,
      "##u": 1043,
      "##y": 1044,
      "##H": 1045,
      "##X": 1046,
      "##f": 1047,
      "##8": 1048,
      "##2": 1049,
      "##4": 1050,
      "##5": 1051,
      "##_": 1052,
      "##ö": 1053,
      "##ő": 1054,
      "##k": 1055,
      "##x": 1056,
      "##z": 1057,
      "##好": 1058,
      "##き": 1059,
      "##な": 1060,
      "##ら": 1061,
      "##ラ": 1062,
      "##イ": 1063,
      "##ブ": 1064,
      "##で": 1065,
      "##も": 1066,
      "##行": 1067,
      "##っ": 1068,
      "##て": 1069,
      "##み": 1070,
      "##れ": 1071,
      "##ば": 1072,
      "##い": 1073,
      "##と": 1074,
      "##思": 1075,
      "##う": 1076,
      "##C": 1077,
      "##ل": 1078,
      "##ت": 1079,
      "##ي": 1080,
      "##v": 1081,
      "##L": 1082,
      "##q": 1083,
      "##в": 1084,
      "##і": 1085,
      "##й": 1086,
      "##ш": 1087,
      "##л": 1088,
      "##и": 1089,
      "##O": 1090,
      "##Q": 1091,
      "##Y": 1092,
      "##U": 1093,
      "##J": 1094,
      "##+": 1095,
      "##.": 1096,
      "##P": 1097,
      "##D": 1098,
      "##Z": 1099,
      "##く": 1100,
      "##の": 1101,
      "##о": 1102,
      "##н": 1103,
      "##а": 1104,
      "##ä": 1105,
      "###": 1106,
      "##\"": 1107,
      "##,": 1108,
      "##ğ": 1109,
      "##以": 1110,
      "##外": 1111,
      "##に": 1112,
      "##あ": 1113,
      "##た": 1114,
      "##ó": 1115,
      "##ジ": 1116,
      "##カ": 1117,
      "##を": 1118,
      "##投": 1119,
      "##入": 1120,
      "##し": 1121,
      "##よ": 1122,
      "##️": 1123,
      "##é": 1124,
      "##ș": 1125,
      "##^": 1126,
      "##-": 1127,
      "##<": 1128,
      "##|": 1129,
      "##:": 1130,
      "##&": 1131,
      "##前": 1132,
      "##か": 1133,
      "##る": 1134,
      "##ß": 1135,
      "##σ": 1136,
      "##τ": 1137,
      "##υ": 1138,
      "##ν": 1139,
      "##ο": 1140,
      "##μ": 1141,
      "##ί": 1142,
      "##α": 1143,
      "##!": 1144,
      "##%": 1145,
      "##@": 1146,
      "##サ": 1147,
      "##ー": 1148,
      "##ビ": 1149,
      "##ス": 1150,
      "##り": 1151,
      "##画": 1152,
      "##は": 1153,
      "##す": 1154,
      "##ね": 1155,
      "##$": 1156,
      "##ь": 1157,
      "##з": 1158,
      "##т": 1159,
      "##е": 1160,
      "##ю": 1161,
      "##ı": 1162,
      "##ş": 1163,
      "##法": 1164,
      "##長": 1165,
      "##回": 1166,
      "##け": 1167,
      "##̂": 1168,
      "##͛": 1169,
      "##ͯ": 1170,
      "##̕": 1171,
      "##̳": 1172,
      "##͎": 1173,
      "##͉": 1174,
      "##͕": 1175,
      "##̹": 1176,
      "##̜": 1177,
      "##̥": 1178,
      "##̙": 1179,
      "##̯": 1180,
      "##̤": 1181,
      "##̪": 1182,
      "##̆": 1183,
      "##ͨ": 1184,
      "##̀": 1185,
      "##ͥ": 1186,
      "##͊": 1187,
      "##̎": 1188,
      "##̔": 1189,
      "##̍": 1190,
      "##̐": 1191,
      "##ͫ": 1192,
      "##̛": 1193,
      "##͢": 1194,
      "##҉": 1195,
      "##̟": 1196,
      "##̱": 1197,
      "##̰": 1198,
      "##͍": 1199,
      "##͚": 1200,
      "##̲": 1201,
      "##ͅ": 1202,
      "##̻": 1203,
      "##̑": 1204,
      "##ͧ": 1205,
      "##̾": 1206,
      "##̌": 1207,
      "##͌": 1208,
      "##̀": 1209,
      "##͠": 1210,
      "##̨": 1211,
      "##͏": 1212,
      "##̞": 1213,
      "##͔": 1214,
      "##̼": 1215,
      "##̣": 1216,
      "##͈": 1217,
      "##̭": 1218,
      "##̘": 1219,
      "##ͩ": 1220,
      "##ͬ": 1221,
      "##ͦ": 1222,
      "##ͪ": 1223,
      "##ͮ": 1224,
      "##̏": 1225,
      "##͜": 1226,
      "##̷": 1227,
      "##͡": 1228,
      "##̠": 1229,
      "##͙": 1230,
      "##р": 1231,
      "##п": 1232,
      "##ц": 1233,
      "##]": 1234,
      "##í": 1235,
      "##ゃ": 1236,
      "##ご": 1237,
      "##レ": 1238,
      "##ン": 1239,
      "##È": 1240,
      "##д": 1241,
      "##я": 1242,
      "##щ": 1243,
      "##м": 1244,
      "##ї": 1245,
      "##ü": 1246,
      "##本": 1247,
      "##が": 1248,
      "##め": 1249,
      "##ぞ": 1250,
      "##к": 1251,
      "##'": 1252,
      "##)": 1253,
      "##~": 1254,
      "##正": 1255,
      "##â": 1256,
      "##è": 1257,
      "##͐": 1258,
      "##̬": 1259,
      "##̫": 1260,
      "##買": 1261,
      "##パ": 1262,
      "##ッ": 1263,
      "##ケ": 1264,
      "##通": 1265,
      "##プ": 1266,
      "##ト": 1267,
      "##ɪ": 1268,
      "##=": 1269,
      "##?": 1270,
      "##ち": 1271,
      "##δ": 1272,
      "##ι": 1273,
      "##г": 1274,
      "##ð": 1275,
      "##}": 1276,
      "##б": 1277,
      "##у": 1278,
      "##ч": 1279,
      "##ん": 1280,
      "##こ": 1281,
      "##事": 1282,
      "##だ": 1283,
      "##(": 1284,
      "##*": 1285,
      "##å": 1286,
      "##🏼": 1287,
      "##💦": 1288,
      "##ρ": 1289,
      "##θ": 1290,
      "##ε": 1291,
      "##á": 1292,
      "##ピ": 1293,
      "##定": 1294,
      "##つ": 1295,
      "##金": 1296,
      "##持": 1297,
      "##ょ": 1298,
      "##ə": 1299,
      "##х": 1300,
      "##έ": 1301,
      "##η": 1302,
      "##[": 1303,
      "##É": 1304,
      "##ж": 1305,
      "##ы": 1306,
      "##с": 1307,
      "##κ": 1308,
      "##λ": 1309,
      "##ς": 1310,
      "##ă": 1311,
      "##無": 1312,
      "##ぁ": 1313,
      "##ã": 1314,
      "##ほ": 1315,
      "##æ": 1316,
      "##体": 1317,
      "##感": 1318,
      "##じ": 1319,
      "##χ": 1320,
      "##ό": 1321,
      "##\\": 1322,
      "##;": 1323,
      "##`": 1324,
      "##의": 1325,
      "##ñ": 1326,
      "##中": 1327,
      "##下": 1328,
      "##ろ": 1329,
      "##ç": 1330,
      "##à": 1331,
      "##💋": 1332,
      "##😷": 1333,
      "##õ": 1334,
      "##ク": 1335,
      "##ì": 1336,
      "##ǝ": 1337,
      "##π": 1338,
      "##φ": 1339,
      "##ζ": 1340,
      "##ω": 1341,
      "##加": 1342,
      "##ć": 1343,
      "##이": 1344,
      "##ò": 1345,
      "##Ö": 1346,
      "##ī": 1347,
      "##ë": 1348,
      "##一": 1349,
      "##セ": 1350,
      "##ル": 1351,
      "##性": 1352,
      "##ł": 1353,
      "##ś": 1354,
      "##ξ": 1355,
      "##初": 1356,
      "##面": 1357,
      "##ț": 1358,
      "##ά": 1359,
      "##°": 1360,
      "##む": 1361,
      "##ま": 1362,
      "##合": 1363,
      "##さ": 1364,
      "##せ": 1365,
      "##ё": 1366,
      "##͟": 1367,
      "##̡": 1368,
      "##͝": 1369,
      "##̗": 1370,
      "##͖": 1371,
      "##̖": 1372,
      "##̝": 1373,
      "##͇": 1374,
      "##🏻": 1375,
      "##🙈": 1376,
      "##力": 1377,
      "##ή": 1378,
      "##✅": 1379,
      "##А": 1380,
      "##М": 1381,
      "##И": 1382,
      "##К": 1383,
      "##Д": 1384,
      "##З": 1385,
      "##Е": 1386,
      "##バ": 1387,
      "##メ": 1388,
      "##ž": 1389,
      "##ј": 1390,
      "##ど": 1391,
      "##チ": 1392,
      "##気": 1393,
      "##上": 1394,
      "##げ": 1395,
      "##>": 1396,
      "##ф": 1397,
      "##👊": 1398,
      "##γ": 1399,
      "##🏾": 1400,
      "##👍": 1401,
      "##分": 1402,
      "##▅": 1403,
      "##█": 1404,
      "##̦": 1405,
      "##̵": 1406,
      "##̧": 1407,
      "##̸": 1408,
      "##͓": 1409,
      "##͞": 1410,
      "##̶": 1411,
      "##̮": 1412,
      "##リ": 1413,
      "##エ": 1414,
      "##タ": 1415,
      "##発": 1416,
      "##言": 1417,
      "##名": 1418,
      "##そ": 1419,
      "##目": 1420,
      "##º": 1421,
      "##Ο": 1422,
      "##ú": 1423,
      "##コ": 1424,
      "##出": 1425,
      "##わ": 1426,
      "##白": 1427,
      "##々": 1428,
      "##オ": 1429,
      "##要": 1430,
      "##र": 1431,
      "##्": 1432,
      "##問": 1433,
      "##題": 1434,
      "##🇸": 1435,
      "##🇺": 1436,
      "##̴": 1437,
      "##͑": 1438,
      "##̉": 1439,
      "##̢": 1440,
      "##̽": 1441,
      "##̚": 1442,
      "##̓": 1443,
      "##̊": 1444,
      "##ô": 1445,
      "##č": 1446,
      "##न": 1447,
      "##開": 1448,
      "##地": 1449,
      "##ā": 1450,
      "##{": 1451,
      "##時": 1452,
      "##来": 1453,
      "##安": 1454,
      "##倍": 1455,
      "##ロ": 1456,
      "##ê": 1457,
      "##ø": 1458,
      "##ę": 1459,
      "##ύ": 1460,
      "##/": 1461,
      "##ニ": 1462,
      "##生": 1463,
      "##売": 1464,
      "##ポ": 1465,
      "##化": 1466,
      "##َ": 1467,
      "##ه": 1468,
      "##日": 1469,
      "##見": 1470,
      "##β": 1471,
      "##ý": 1472,
      "##モ": 1473,
      "##デ": 1474,
      "##シ": 1475,
      "##ョ": 1476,
      "##議": 1477,
      "##š": 1478,
      "##░": 1479,
      "##人": 1480,
      "##同": 1481,
      "##立": 1482,
      "##場": 1483,
      "##😘": 1484,
      "##😙": 1485,
      "##😈": 1486,
      "##💜": 1487,
      "##💕": 1488,
      "##💖": 1489,
      "##💙": 1490,
      "##💚": 1491,
      "##́": 1492,
      "##ぶ": 1493,
      "##ノ": 1494,
      "##ē": 1495,
      "##当": 1496,
      "##公": 1497,
      "##や": 1498,
      "##ï": 1499,
      "##年": 1500,
      "##月": 1501,
      "##Ó": 1502,
      "##ं": 1503,
      "##Н": 1504,
      "##Я": 1505,
      "##ح": 1506,
      "##د": 1507,
      "##י": 1508,
      "##ם": 1509,
      "##💀": 1510,
      "##ח": 1511,
      "##ת": 1512,
      "##ム": 1513,
      "##ツ": 1514,
      "##意": 1515,
      "##味": 1516,
      "##自": 1517,
      "##民": 1518,
      "##💩": 1519,
      "##є": 1520,
      "##国": 1521,
      "##学": 1522,
      "##会": 1523,
      "##🎉": 1524,
      "##û": 1525,
      "##ا": 1526,
      "##م": 1527,
      "##ن": 1528,
      "##え": 1529,
      "##כ": 1530,
      "##ו": 1531,
      "##ダ": 1532,
      "##ュ": 1533,
      "##者": 1534,
      "##ズ": 1535,
      "##🅱": 1536,
      "##小": 1537,
      "##ر": 1538,
      "##و": 1539,
      "##ワ": 1540,
      "##ɹ": 1541,
      "##作": 1542,
      "##Π": 1543,
      "##Ε": 1544,
      "##ा": 1545,
      "##С": 1546,
      "##Т": 1547,
      "##У": 1548,
      "##ώ": 1549,
      "##“": 1550,
      "##ψ": 1551,
      "##ą": 1552,
      "##ق": 1553,
      "##ة": 1554,
      "##ソ": 1555,
      "##ア": 1556,
      "##ず": 1557,
      "##ù": 1558,
      "##的": 1559,
      "##お": 1560,
      "##話": 1561,
      "##女": 1562,
      "##😎": 1563,
      "##😁": 1564,
      "##ה": 1565,
      "##🔥": 1566,
      "##”": 1567,
      "##🌊": 1568,
      "##少": 1569,
      "##ネ": 1570,
      "##続": 1571,
      "##結": 1572,
      "##部": 1573,
      "##大": 1574,
      "##度": 1575,
      "##😂": 1576,
      "##ō": 1577,
      "##͘": 1578,
      "##̩": 1579,
      "##아": 1580,
      "##‘": 1581,
      "##～": 1582,
      "##Ｅ": 1583,
      "##Ｔ": 1584,
      "##手": 1585,
      "##動": 1586,
      "##하": 1587,
      "##̺": 1588,
      "##👌": 1589,
      "##﻿": 1590,
      "##·": 1591,
      "##ب": 1592,
      "##ש": 1593,
      "##מ": 1594,
      "##€": 1595,
      "##間": 1596,
      "##한": 1597,
      "##다": 1598,
      "##ベ": 1599,
      "##́": 1600,
      "##ヤ": 1601,
      "##員": 1602,
      "##在": 1603,
      "##！": 1604,
      "##™": 1605,
      "##🍕": 1606,
      "##代": 1607,
      "##社": 1608,
      "##不": 1609,
      "##情": 1610,
      "##俺": 1611,
      "##ゴ": 1612,
      "##へ": 1613,
      "##語": 1614,
      "##¥": 1615,
      "##ɥ": 1616,
      "##ń": 1617,
      "##்": 1618,
      "##ह": 1619,
      "##े": 1620,
      "##ع": 1621,
      "##ف": 1622,
      "##変": 1623,
      "##世": 1624,
      "##는": 1625,
      "##→": 1626,
      "##▄": 1627,
      "##▆": 1628,
      "##マ": 1629,
      "##キ": 1630,
      "##❤": 1631,
      "##▇": 1632,
      "##ぎ": 1633,
      "##可": 1634,
      "##能": 1635,
      "##心": 1636,
      "##Ｏ": 1637,
      "##三": 1638,
      "##ガ": 1639,
      "##良": 1640,
      "##ナ": 1641,
      "##😡": 1642,
      "##後": 1643,
      "##💯": 1644,
      "##🍆": 1645,
      "##曲": 1646,
      "##נ": 1647,
      "##א": 1648,
      "##ɛ": 1649,
      "##🏽": 1650,
      "##👏": 1651,
      "##😋": 1652,
      "##😊": 1653,
      "##😳": 1654,
      "##Ι": 1655,
      "##═": 1656,
      "##ぐ": 1657,
      "##関": 1658,
      "##👈": 1659,
      "##😩": 1660,
      "##🇷": 1661,
      "##書": 1662,
      "##べ": 1663,
      "##解": 1664,
      "##内": 1665,
      "##🚫": 1666,
      "##ャ": 1667,
      "##私": 1668,
      "##ェ": 1669,
      "##有": 1670,
      "##þ": 1671,
      "##全": 1672,
      "##知": 1673,
      "##考": 1674,
      "##何": 1675,
      "##テ": 1676,
      "##フ": 1677,
      "##ʇ": 1678,
      "##⬛": 1679,
      "##⬜": 1680,
      "##死": 1681,
      "##ゲ": 1682,
      "##違": 1683,
      "##ハ": 1684,
      "##ド": 1685,
      "##高": 1686,
      "##実": 1687,
      "##😍": 1688,
      "##他": 1689,
      "##đ": 1690,
      "##ɔ": 1691,
      "##新": 1692,
      "##我": 1693,
      "##🤗": 1694,
      "##ר": 1695,
      "##音": 1696,
      "##理": 1697,
      "##取": 1698,
      "##💥": 1699,
      "##グ": 1700,
      "##現": 1701,
      "##ż": 1702,
      "##記": 1703,
      "##ش": 1704,
      "##ك": 1705,
      "##에": 1706,
      "##👨": 1707,
      "##ج": 1708,
      "##🅰": 1709,
      "##園": 1710,
      "##明": 1711,
      "##•": 1712,
      "##🔫": 1713,
      "##ि": 1714,
      "##य": 1715,
      "##ｅ": 1716,
      "##你": 1717,
      "##付": 1718,
      "##教": 1719,
      "##î": 1720,
      "##二": 1721,
      "##多": 1722,
      "##🎺": 1723,
      "##◀": 1724,
      "##त": 1725,
      "##機": 1726,
      "##連": 1727,
      "##😱": 1728,
      "##\u001b": 1729,
      "##悪": 1730,
      "##最": 1731,
      "##今": 1732,
      "##業": 1733,
      "##：": 1734,
      "##✌": 1735,
      "##🍝": 1736,
      "##ボ": 1737,
      "##😐": 1738,
      "##ד": 1739,
      "##ｗ": 1740,
      "##ミ": 1741,
      "##対": 1742,
      "##追": 1743,
      "##ウ": 1744,
      "##所": 1745,
      "##▂": 1746,
      "##物": 1747,
      "##👋": 1748,
      "##🙄": 1749,
      "##´": 1750,
      "##س": 1751,
      "##ィ": 1752,
      "##方": 1753,
      "##Α": 1754,
      "##ヽ": 1755,
      "##🤔": 1756,
      "##😜": 1757,
      "##😫": 1758,
      "##ಥ": 1759,
      "##使": 1760,
      "##用": 1761,
      "##子": 1762,
      "##◕": 1763,
      "##♡": 1764,
      "##流": 1765,
      "##政": 1766,
      "##👎": 1767,
      "##）": 1768,
      "##ב": 1769,
      "##ɐ": 1770,
      "##🎵": 1771,
      "##͒": 1772,
      "##ͣ": 1773,
      "##͗": 1774,
      "##ͤ": 1775,
      "##̿": 1776,
      "##͆": 1777,
      "##̒": 1778,
      "##̓": 1779,
      "##ͭ": 1780,
      "##̃": 1781,
      "##̋": 1782,
      "##̇": 1783,
      "##͋": 1784,
      "##̈́": 1785,
      "##้": 1786,
      "##็": 1787,
      "##▒": 1788,
      "##▀": 1789,
      "##👩": 1790,
      "##ţ": 1791,
      "##ל": 1792,
      "##…": 1793,
      "##—": 1794,
      "##食": 1795,
      "##─": 1796,
      "##Г": 1797,
      "##Л": 1798,
      "##া": 1799,
      "##–": 1800,
      "##ū": 1801,
      "##Κ": 1802,
      "##Σ": 1803,
      "##報": 1804,
      "##★": 1805,
      "##’": 1806,
      "##【": 1807,
      "##‍": 1808,
      "##😅": 1809,
      "##✊": 1810,
      "##✋": 1811,
      "##■": 1812,
      "##🐶": 1813,
      "##̈": 1814,
      "##̅": 1815,
      "##̄": 1816,
      "##ע": 1817,
      "##😞": 1818,
      "##再": 1819,
      "##▓": 1820,
      "##😧": 1821,
      "##😢": 1822,
      "##文": 1823,
      "##Í": 1824,
      "##🙌": 1825,
      "##♪": 1826,
      "##♫": 1827,
      "##･": 1828,
      "##✓": 1829,
      "##Б": 1830,
      "##ी": 1831,
      "##म": 1832,
      "##😠": 1833,
      "##▁": 1834,
      "##💰": 1835,
      "##£": 1836,
      "##͂": 1837,
      "##戦": 1838,
      "##أ": 1839,
      "##İ": 1840,
      "##​": 1841,
      "##🙏": 1842,
      "##🏃": 1843,
      "##込": 1844,
      "##🏿": 1845,
      "##🌶": 1846,
      "##😭": 1847,
      "##»": 1848,
      "##😃": 1849,
      "##―": 1850,
      "##🙁": 1851,
      "##∆": 1852,
      "##び": 1853,
      "##∞": 1854,
      "##😄": 1855,
      "##ᴉ": 1856,
      "##가": 1857,
      "##Τ": 1858,
      "##☝": 1859,
      "##😇": 1860,
      "##😰": 1861,
      "##Ç": 1862,
      "##🤘": 1863,
      "##Ａ": 1864,
      "##▃": 1865,
      "##💁": 1866,
      "##😛": 1867,
      "##務": 1868,
      "##真": 1869,
      "##Ä": 1870,
      "##ź": 1871,
      "##√": 1872,
      "##東": 1873,
      "##🎶": 1874,
      "##🤣": 1875,
      "##༼": 1876,
      "##¡": 1877,
      "##э": 1878,
      "##ˈ": 1879,
      "##💪": 1880,
      "##🐍": 1881,
      "##👀": 1882,
      "##😮": 1883,
      "##家": 1884,
      "##１": 1885,
      "##Ч": 1886,
      "##😻": 1887,
      "##👁": 1888,
      "##😏": 1889,
      "##ल": 1890,
      "##相": 1891,
      "##🍑": 1892,
      "##💸": 1893,
      "##О": 1894,
      "##😑": 1895,
      "##😆": 1896,
      "##ザ": 1897,
      "##、": 1898,
      "##😀": 1899,
      "##☐": 1900,
      "##ಠ": 1901,
      "##Á": 1902,
      "##À": 1903,
      "##ﾟ": 1904,
      "##☹": 1905,
      "##प": 1906,
      "##क": 1907,
      "##😲": 1908,
      "##・": 1909,
      "##😤": 1910,
      "##😔": 1911,
      "##😉": 1912,
      "##━": 1913,
      "##☆": 1914,
      "##§": 1915,
      "##¿": 1916,
      "##（": 1917,
      "##­": 1918,
      "##👅": 1919,
      "##♥": 1920,
      "##🐙": 1921,
      "##｀": 1922,
      "##👧": 1923,
      "##®": 1924,
      "##Ν": 1925,
      "##😣": 1926,
      "##😒": 1927,
      "##ᵒ": 1928,
      "##⚠": 1929,
      "##☺": 1930,
      "##✔": 1931,
      "##？": 1932,
      "##©": 1933,
      "##Η": 1934,
      "##Γ": 1935,
      "##Р": 1936,
      "##●": 1937,
      "##😕": 1938,
      "##😬": 1939,
      "##👺": 1940,
      "##➡": 1941,
      "##🐸": 1942,
      "##。": 1943,
      "##😥": 1944,
      "##⃣": 1945,
      "##🚨": 1946,
      "##」": 1947,
      "##👉": 1948,
      "##♂": 1949,
      "##В": 1950,
      "##】": 1951,
      "##≠": 1952,
      "##Ü": 1953,
      "##「": 1954,
      "##Μ": 1955,
      "##╯": 1956,
      "##¯": 1957,
      "##\u0010": 1958,
      "##🙂": 1959,
      "##♀": 1960,
      "##Å": 1961,
      "##⭐": 1962,
      "##⢀": 1963,
      "##×": 1964,
      "##►": 1965,
      "##ຈ": 1966,
      "##💧": 1967,
      "##": 1968,
      "##П": 1969,
      "##😝": 1970,
      "##👦": 1971,
      "##ლ": 1972,
      "##˙": 1973,
      "##Æ": 1974,
      "##🙅": 1975,
      "##‿": 1976,
      "##Δ": 1977,
      "##ﾉ": 1978,
      "##☞": 1979,
      "##Э": 1980,
      "##²": 1981,
      "##🙃": 1982,
      "##❌": 1983,
      "##½": 1984,
      "##猫": 1985,
      "##，": 1986,
      "##🐌": 1987,
      "##💢": 1988,
      "##œ": 1989,
      "##ʖ": 1990,
      "##„": 1991,
      "##«": 1992,
      "##ʘ": 1993,
      "##┻": 1994,
      "##¢": 1995,
      "##℅": 1996,
      "##༽": 1997,
      "##🍿": 1998,
      "##☑": 1999,
      "##▔": 2000,
      "##🇫": 2001,
      "##ง": 2002,
      "##⠀": 2003,
      "th": 2004,
      "##er": 2005,
      "the": 2006,
      "##in": 2007,
      "##nd": 2008,
      "##or": 2009,
      "##at": 2010,
      "##ou": 2011,
      "##es": 2012,
      "##ing": 2013,
      "##on": 2014,
      "##ed": 2015,
      "to": 2016,
      "and": 2017,
      "##en": 2018,
      "##ll": 2019,
      "##it": 2020,
      "##is": 2021,
      "##ar": 2022,
      "##as": 2023,
      "##an": 2024,
      "##re": 2025,
      "of": 2026,
      "it": 2027,
      "in": 2028,
      "##om": 2029,
      "##le": 2030,
      "##ic": 2031,
      "is": 2032,
      "##ut": 2033,
      "##ot": 2034,
      "##ve": 2035,
      "re": 2036,
      "on": 2037,
      "##et": 2038,
      "Th": 2039,
      "##st": 2040,
      "##al": 2041,
      "##ly": 2042,
      "for": 2043,
      "##oo": 2044,
      "##ct": 2045,
      "ha": 2046,
      "be": 2047,
      "##gh": 2048,
      "##se": 2049,
      "##ow": 2050,
      "st": 2051,
      "wh": 2052,
      "you": 2053,
      "that": 2054,
      "this": 2055,
      "##ay": 2056,
      "##ith": 2057,
      "##ch": 2058,
      "##ld": 2059,
      "##ion": 2060,
      "##ad": 2061,
      "with": 2062,
      "##all": 2063,
      "##ent": 2064,
      "##id": 2065,
      "##ver": 2066,
      "##ter": 2067,
      "was": 2068,
      "##ur": 2069,
      "##ce": 2070,
      "pr": 2071,
      "The": 2072,
      "##me": 2073,
      "##ke": 2074,
      "li": 2075,
      "but": 2076,
      "my": 2077,
      "##ir": 2078,
      "as": 2079,
      "##ck": 2080,
      "an": 2081,
      "##ght": 2082,
      "not": 2083,
      "##th": 2084,
      "sh": 2085,
      "have": 2086,
      "##ere": 2087,
      "##ill": 2088,
      "##ee": 2089,
      "are": 2090,
      "##ook": 2091,
      "so": 2092,
      "##ra": 2093,
      "##ri": 2094,
      "he": 2095,
      "##ould": 2096,
      "do": 2097,
      "##ally": 2098,
      "##ust": 2099,
      "ch": 2100,
      "we": 2101,
      "##reat": 2102,
      "##il": 2103,
      "##ers": 2104,
      "##ble": 2105,
      "al": 2106,
      "ne": 2107,
      "com": 2108,
      "##pp": 2109,
      "##ood": 2110,
      "##ore": 2111,
      "wor": 2112,
      "##ess": 2113,
      "##est": 2114,
      "##ie": 2115,
      "##ect": 2116,
      "pro": 2117,
      "It": 2118,
      "##im": 2119,
      "or": 2120,
      "ex": 2121,
      "lo": 2122,
      "##ge": 2123,
      "##am": 2124,
      "one": 2125,
      "at": 2126,
      "##ul": 2127,
      "##ome": 2128,
      "me": 2129,
      "##ery": 2130,
      "they": 2131,
      "##ant": 2132,
      "like": 2133,
      "##ice": 2134,
      "fr": 2135,
      "de": 2136,
      "su": 2137,
      "pl": 2138,
      "##ol": 2139,
      "all": 2140,
      "can": 2141,
      "##out": 2142,
      "##op": 2143,
      "##ain": 2144,
      "##us": 2145,
      "##um": 2146,
      "##un": 2147,
      "##ast": 2148,
      "out": 2149,
      "##ight": 2150,
      "up": 2151,
      "con": 2152,
      "mo": 2153,
      "se": 2154,
      "##ong": 2155,
      "##ack": 2156,
      "This": 2157,
      "ab": 2158,
      "great": 2159,
      "##if": 2160,
      "##one": 2161,
      "just": 2162,
      "get": 2163,
      "##ak": 2164,
      "##..": 2165,
      "from": 2166,
      "##art": 2167,
      "##ard": 2168,
      "good": 2169,
      "##ough": 2170,
      "##ist": 2171,
      "very": 2172,
      "them": 2173,
      "en": 2174,
      "book": 2175,
      "work": 2176,
      "##ound": 2177,
      "more": 2178,
      "##ate": 2179,
      "##ive": 2180,
      "has": 2181,
      "would": 2182,
      "##ap": 2183,
      "will": 2184,
      "her": 2185,
      "##ear": 2186,
      "##ame": 2187,
      "##her": 2188,
      "qu": 2189,
      "##ind": 2190,
      "##au": 2191,
      "##ies": 2192,
      "##and": 2193,
      "##ig": 2194,
      "##act": 2195,
      "##ation": 2196,
      "us": 2197,
      "##ort": 2198,
      "##os": 2199,
      "##able": 2200,
      "about": 2201,
      "##ven": 2202,
      "sp": 2203,
      "##ity": 2204,
      "some": 2205,
      "##ime": 2206,
      "had": 2207,
      "if": 2208,
      "well": 2209,
      "no": 2210,
      "when": 2211,
      "##ite": 2212,
      "##ag": 2213,
      "read": 2214,
      "##ink": 2215,
      "##itt": 2216,
      "tr": 2217,
      "any": 2218,
      "##ake": 2219,
      "than": 2220,
      "go": 2221,
      "your": 2222,
      "see": 2223,
      "##ine": 2224,
      "oth": 2225,
      "##ick": 2226,
      "##uct": 2227,
      "these": 2228,
      "am": 2229,
      "##el": 2230,
      "his": 2231,
      "what": 2232,
      "time": 2233,
      "un": 2234,
      "le": 2235,
      "co": 2236,
      "by": 2237,
      "##erf": 2238,
      "##ide": 2239,
      "...": 2240,
      "##ory": 2241,
      "##ich": 2242,
      "really": 2243,
      "ever": 2244,
      "ad": 2245,
      "use": 2246,
      "##ro": 2247,
      "bec": 2248,
      "love": 2249,
      "cl": 2250,
      "comp": 2251,
      "did": 2252,
      "bu": 2253,
      "who": 2254,
      "ar": 2255,
      "##ue": 2256,
      "##ab": 2257,
      "int": 2258,
      "kn": 2259,
      "##vie": 2260,
      "##av": 2261,
      "##uch": 2262,
      "##ure": 2263,
      "does": 2264,
      "other": 2265,
      "rec": 2266,
      "look": 2267,
      "##ment": 2268,
      "##ous": 2269,
      "##ase": 2270,
      "##so": 2271,
      "##iz": 2272,
      "too": 2273,
      "there": 2274,
      "she": 2275,
      "##ause": 2276,
      "much": 2277,
      "sc": 2278,
      "##em": 2279,
      "only": 2280,
      "prod": 2281,
      "exp": 2282,
      "##ip": 2283,
      "##ought": 2284,
      "##ays": 2285,
      "don": 2286,
      "man": 2287,
      "##ff": 2288,
      "bet": 2289,
      "##ved": 2290,
      "over": 2291,
      "which": 2292,
      "fe": 2293,
      "##own": 2294,
      "off": 2295,
      "product": 2296,
      "char": 2297,
      "how": 2298,
      "need": 2299,
      "want": 2300,
      "##oy": 2301,
      "their": 2302,
      "##pt": 2303,
      "##ade": 2304,
      "because": 2305,
      "Wh": 2306,
      "##ach": 2307,
      "pre": 2308,
      "##our": 2309,
      "##ves": 2310,
      "##ittle": 2311,
      "were": 2312,
      "year": 2313,
      "##end": 2314,
      "##age": 2315,
      "##irst": 2316,
      "##ace": 2317,
      "ag": 2318,
      "##fter": 2319,
      "eas": 2320,
      "story": 2321,
      "##ass": 2322,
      "##ish": 2323,
      "tw": 2324,
      "im": 2325,
      "##ell": 2326,
      "little": 2327,
      "##ings": 2328,
      "every": 2329,
      "fl": 2330,
      "back": 2331,
      "##ry": 2332,
      "even": 2333,
      "##ond": 2334,
      "##ile": 2335,
      "##hing": 2336,
      "dis": 2337,
      "been": 2338,
      "sm": 2339,
      "could": 2340,
      "ve": 2341,
      "also": 2342,
      "##int": 2343,
      "##ac": 2344,
      "##ose": 2345,
      "##ud": 2346,
      "##ens": 2347,
      "perf": 2348,
      "##eel": 2349,
      "first": 2350,
      "po": 2351,
      "act": 2352,
      "into": 2353,
      "think": 2354,
      "##igh": 2355,
      "play": 2356,
      "wr": 2357,
      "##iff": 2358,
      "##ality": 2359,
      "##eep": 2360,
      "bl": 2361,
      "##od": 2362,
      "##atch": 2363,
      "##ions": 2364,
      "##ire": 2365,
      "know": 2366,
      "##ms": 2367,
      "##00": 2368,
      "My": 2369,
      "##ting": 2370,
      "way": 2371,
      "##are": 2372,
      "ser": 2373,
      "##tt": 2374,
      "thr": 2375,
      "##ull": 2376,
      "##other": 2377,
      "They": 2378,
      "##ec": 2379,
      "##urn": 2380,
      "##ans": 2381,
      "##oth": 2382,
      "If": 2383,
      "##ater": 2384,
      "##pl": 2385,
      "set": 2386,
      "better": 2387,
      "after": 2388,
      "##oun": 2389,
      "still": 2390,
      "##ks": 2391,
      "##ving": 2392,
      "cont": 2393,
      "make": 2394,
      "two": 2395,
      "##ree": 2396,
      "##az": 2397,
      "new": 2398,
      "##der": 2399,
      "end": 2400,
      "##ance": 2401,
      "long": 2402,
      "diff": 2403,
      "part": 2404,
      "inst": 2405,
      "ro": 2406,
      "buy": 2407,
      "##per": 2408,
      "##ily": 2409,
      "pe": 2410,
      "##ious": 2411,
      "des": 2412,
      "sa": 2413,
      "made": 2414,
      "fit": 2415,
      "##akes": 2416,
      "then": 2417,
      "nice": 2418,
      "##lf": 2419,
      "##orm": 2420,
      "charact": 2421,
      "price": 2422,
      "##ial": 2423,
      "##qu": 2424,
      "##mend": 2425,
      "most": 2426,
      "now": 2427,
      "St": 2428,
      "In": 2429,
      "got": 2430,
      "quality": 2431,
      "down": 2432,
      "Sh": 2433,
      "##vel": 2434,
      "him": 2435,
      "put": 2436,
      "Great": 2437,
      "You": 2438,
      "##ps": 2439,
      "old": 2440,
      "##omet": 2441,
      "##ommend": 2442,
      "feel": 2443,
      "##ence": 2444,
      "pur": 2445,
      "Ch": 2446,
      "perfect": 2447,
      "sl": 2448,
      "##view": 2449,
      "find": 2450,
      "best": 2451,
      "gu": 2452,
      "aw": 2453,
      "lot": 2454,
      "##old": 2455,
      "again": 2456,
      "##ople": 2457,
      "##wn": 2458,
      "##ult": 2459,
      "recommend": 2460,
      "##cc": 2461,
      "happ": 2462,
      "But": 2463,
      "##ated": 2464,
      "used": 2465,
      "##ob": 2466,
      "light": 2467,
      "He": 2468,
      "gr": 2469,
      "##ually": 2470,
      "##bum": 2471,
      "small": 2472,
      "##ord": 2473,
      "keep": 2474,
      "its": 2475,
      "##ft": 2476,
      "##ased": 2477,
      "fil": 2478,
      "tra": 2479,
      "app": 2480,
      "easy": 2481,
      "high": 2482,
      "##ars": 2483,
      "hand": 2484,
      "te": 2485,
      "bit": 2486,
      "##og": 2487,
      "##ize": 2488,
      "##ang": 2489,
      "album": 2490,
      "say": 2491,
      "inter": 2492,
      "##xt": 2493,
      "##thing": 2494,
      "people": 2495,
      "ph": 2496,
      "##ail": 2497,
      "somet": 2498,
      "fun": 2499,
      "many": 2500,
      "##sp": 2501,
      "song": 2502,
      "br": 2503,
      "##les": 2504,
      ").": 2505,
      "works": 2506,
      "review": 2507,
      "##joy": 2508,
      "##ber": 2509,
      "##ors": 2510,
      "str": 2511,
      "##ple": 2512,
      "through": 2513,
      "##fe": 2514,
      "##ub": 2515,
      "##nder": 2516,
      "game": 2517,
      "res": 2518,
      "years": 2519,
      "right": 2520,
      "##ical": 2521,
      "cle": 2522,
      "differ": 2523,
      "##mo": 2524,
      "didn": 2525,
      "bought": 2526,
      "##we": 2527,
      "should": 2528,
      "che": 2529,
      "bo": 2530,
      "movie": 2531,
      "##self": 2532,
      "##ount": 2533,
      "hard": 2534,
      "inc": 2535,
      "enjoy": 2536,
      "##ever": 2537,
      "##fore": 2538,
      "sound": 2539,
      "On": 2540,
      "And": 2541,
      "never": 2542,
      "So": 2543,
      "##ict": 2544,
      "##gin": 2545,
      "!!": 2546,
      "##pr": 2547,
      "few": 2548,
      "##atter": 2549,
      "##ild": 2550,
      "doesn": 2551,
      "purch": 2552,
      "start": 2553,
      "tri": 2554,
      "add": 2555,
      "##imes": 2556,
      "##ark": 2557,
      "##air": 2558,
      "##ese": 2559,
      "last": 2560,
      "enough": 2561,
      "##ince": 2562,
      "being": 2563,
      "going": 2564,
      "There": 2565,
      "same": 2566,
      "where": 2567,
      "##ary": 2568,
      "We": 2569,
      "around": 2570,
      "Am": 2571,
      "our": 2572,
      "hel": 2573,
      "try": 2574,
      "##ason": 2575,
      "big": 2576,
      "mus": 2577,
      "may": 2578,
      "Al": 2579,
      "while": 2580,
      "thing": 2581,
      "car": 2582,
      "before": 2583,
      "##ph": 2584,
      "##ign": 2585,
      "##ise": 2586,
      "own": 2587,
      "under": 2588,
      "##ways": 2589,
      "real": 2590,
      "show": 2591,
      "##get": 2592,
      "sec": 2593,
      "##aking": 2594,
      "though": 2595,
      "##ove": 2596,
      "##ave": 2597,
      "gl": 2598,
      "series": 2599,
      "##ug": 2600,
      "##ition": 2601,
      "##tty": 2602,
      "something": 2603,
      "proble": 2604,
      "##ute": 2605,
      "op": 2606,
      "##ool": 2607,
      "##ning": 2608,
      "##oss": 2609,
      "another": 2610,
      "##iv": 2611,
      "att": 2612,
      "##ces": 2613,
      "fo": 2614,
      "expect": 2615,
      "case": 2616,
      "life": 2617,
      "def": 2618,
      "##ful": 2619,
      "##ock": 2620,
      "##te": 2621,
      "##ations": 2622,
      "mon": 2623,
      "sure": 2624,
      "##li": 2625,
      "characters": 2626,
      "min": 2627,
      "order": 2628,
      "size": 2629,
      "different": 2630,
      "##less": 2631,
      "ll": 2632,
      "##ating": 2633,
      "##ange": 2634,
      "##avor": 2635,
      "sim": 2636,
      "far": 2637,
      "take": 2638,
      "dec": 2639,
      "Not": 2640,
      "##ents": 2641,
      "pretty": 2642,
      "ext": 2643,
      "cr": 2644,
      "##ower": 2645,
      "As": 2646,
      "##ger": 2647,
      "always": 2648,
      "those": 2649,
      "fin": 2650,
      "##ather": 2651,
      "day": 2652,
      "without": 2653,
      "##ably": 2654,
      "These": 2655,
      "##ia": 2656,
      "dog": 2657,
      "col": 2658,
      "using": 2659,
      "hold": 2660,
      "here": 2661,
      "##riend": 2662,
      "##uck": 2663,
      "things": 2664,
      "sur": 2665,
      "##fort": 2666,
      "makes": 2667,
      "music": 2668,
      "Re": 2669,
      "##ert": 2670,
      "since": 2671,
      "both": 2672,
      "aut": 2673,
      "exce": 2674,
      "An": 2675,
      "dr": 2676,
      "##ual": 2677,
      "watch": 2678,
      "##ix": 2679,
      "bad": 2680,
      "##ath": 2681,
      "##iss": 2682,
      "##rand": 2683,
      "turn": 2684,
      "found": 2685,
      "She": 2686,
      "##app": 2687,
      "acc": 2688,
      "##ey": 2689,
      "##ons": 2690,
      "thought": 2691,
      "--": 2692,
      "bel": 2693,
      "film": 2694,
      "help": 2695,
      "##astic": 2696,
      "Very": 2697,
      "scre": 2698,
      "##read": 2699,
      "looking": 2700,
      "supp": 2701,
      "pers": 2702,
      "10": 2703,
      "give": 2704,
      "##ked": 2705,
      "##ott": 2706,
      "##ash": 2707,
      "gi": 2708,
      "##ible": 2709,
      "class": 2710,
      "##llent": 2711,
      "Wor": 2712,
      "come": 2713,
      "##yp": 2714,
      "each": 2715,
      "Good": 2716,
      "##be": 2717,
      "imp": 2718,
      "run": 2719,
      "##itch": 2720,
      "##ipp": 2721,
      "20": 2722,
      "point": 2723,
      "lar": 2724,
      "list": 2725,
      "rel": 2726,
      "That": 2727,
      "times": 2728,
      "##ope": 2729,
      "worth": 2730,
      "em": 2731,
      "interest": 2732,
      "friend": 2733,
      "##ew": 2734,
      "##ics": 2735,
      "=\"": 2736,
      "actually": 2737,
      "books": 2738,
      "top": 2739,
      "##iting": 2740,
      "water": 2741,
      "ref": 2742,
      "##uff": 2743,
      "##its": 2744,
      "repl": 2745,
      "##de": 2746,
      "loved": 2747,
      "head": 2748,
      "##inite": 2749,
      "),": 2750,
      "seem": 2751,
      "pack": 2752,
      "wa": 2753,
      "##ank": 2754,
      "##up": 2755,
      "##ection": 2756,
      "##ead": 2757,
      "##ular": 2758,
      "seems": 2759,
      "##ian": 2760,
      "fam": 2761,
      "No": 2762,
      "reading": 2763,
      "disc": 2764,
      "iss": 2765,
      "For": 2766,
      "##augh": 2767,
      "##io": 2768,
      "##ets": 2769,
      "##side": 2770,
      "##aw": 2771,
      "##bs": 2772,
      "##ier": 2773,
      "##ially": 2774,
      "month": 2775,
      "##ER": 2776,
      "##oney": 2777,
      "TH": 2778,
      "##ures": 2779,
      "How": 2780,
      "##ouse": 2781,
      "Love": 2782,
      "job": 2783,
      "person": 2784,
      "less": 2785,
      "stand": 2786,
      "##initely": 2787,
      "##ward": 2788,
      "##lud": 2789,
      "install": 2790,
      "cons": 2791,
      "favor": 2792,
      "box": 2793,
      "sw": 2794,
      "##ues": 2795,
      "##gr": 2796,
      "getting": 2797,
      "link": 2798,
      "per": 2799,
      "second": 2800,
      "prot": 2801,
      "next": 2802,
      "such": 2803,
      "ret": 2804,
      "quick": 2805,
      "fine": 2806,
      "phone": 2807,
      "##ib": 2808,
      "##aut": 2809,
      "sol": 2810,
      "##azon": 2811,
      "open": 2812,
      "quite": 2813,
      "full": 2814,
      "fact": 2815,
      "What": 2816,
      "came": 2817,
      "happy": 2818,
      "##als": 2819,
      "rem": 2820,
      "away": 2821,
      "cover": 2822,
      "##ts": 2823,
      "comple": 2824,
      "side": 2825,
      "auth": 2826,
      "dri": 2827,
      "##bably": 2828,
      "sho": 2829,
      "19": 2830,
      "coll": 2831,
      "kind": 2832,
      "##ush": 2833,
      "why": 2834,
      "##oc": 2835,
      "##oint": 2836,
      "war": 2837,
      "##ately": 2838,
      "problem": 2839,
      "##ween": 2840,
      "##ys": 2841,
      "clean": 2842,
      "##rigin": 2843,
      "batter": 2844,
      "dra": 2845,
      "##ically": 2846,
      "wond": 2847,
      "reason": 2848,
      "vers": 2849,
      "##alk": 2850,
      "##most": 2851,
      "gen": 2852,
      "##ats": 2853,
      "ear": 2854,
      "kid": 2855,
      "##ense": 2856,
      "el": 2857,
      "looks": 2858,
      "cam": 2859,
      "When": 2860,
      "said": 2861,
      "includ": 2862,
      "between": 2863,
      "##ont": 2864,
      "loves": 2865,
      "money": 2866,
      "isn": 2867,
      "anything": 2868,
      "able": 2869,
      "##--": 2870,
      "##mm": 2871,
      "typ": 2872,
      "##ife": 2873,
      "wee": 2874,
      "pie": 2875,
      "place": 2876,
      "sub": 2877,
      "toget": 2878,
      "together": 2879,
      "cut": 2880,
      "songs": 2881,
      "##ness": 2882,
      "dur": 2883,
      "sy": 2884,
      "color": 2885,
      "##ced": 2886,
      "yet": 2887,
      "probably": 2888,
      "ev": 2889,
      "might": 2890,
      "fan": 2891,
      "Just": 2892,
      "##ah": 2893,
      "comes": 2894,
      "tell": 2895,
      "##ale": 2896,
      "bag": 2897,
      "##ently": 2898,
      "origin": 2899,
      "cou": 2900,
      "##ages": 2901,
      "rece": 2902,
      "##cri": 2903,
      "cheap": 2904,
      "##wh": 2905,
      "definitely": 2906,
      "wanted": 2907,
      "inf": 2908,
      "##til": 2909,
      "!!!": 2910,
      "##ows": 2911,
      "having": 2912,
      "short": 2913,
      "##ner": 2914,
      "##ction": 2915,
      "All": 2916,
      "bre": 2917,
      "..": 2918,
      "world": 2919,
      "##cks": 2920,
      ":/": 2921,
      "ed": 2922,
      "sing": 2923,
      "reg": 2924,
      "everything": 2925,
      "almost": 2926,
      "item": 2927,
      "##ters": 2928,
      "let": 2929,
      "Bl": 2930,
      "##ng": 2931,
      "won": 2932,
      "##ments": 2933,
      "must": 2934,
      "ind": 2935,
      "htt": 2936,
      "eff": 2937,
      "stor": 2938,
      "Be": 2939,
      "##erful": 2940,
      "done": 2941,
      "://": 2942,
      "det": 2943,
      "met": 2944,
      "##red": 2945,
      "once": 2946,
      "comfort": 2947,
      "care": 2948,
      "##ience": 2949,
      "home": 2950,
      "character": 2951,
      "needed": 2952,
      "##ten": 2953,
      "cra": 2954,
      "belie": 2955,
      "##ames": 2956,
      "wear": 2957,
      "easily": 2958,
      "favorite": 2959,
      "sn": 2960,
      "stars": 2961,
      "##ates": 2962,
      "##ots": 2963,
      "##ative": 2964,
      "ple": 2965,
      "One": 2966,
      "red": 2967,
      "##vice": 2968,
      "##stand": 2969,
      "author": 2970,
      "sever": 2971,
      "##bo": 2972,
      "strong": 2973,
      "sk": 2974,
      "##ention": 2975,
      "three": 2976,
      "Amazon": 2977,
      "spe": 2978,
      "power": 2979,
      "##day": 2980,
      "##ised": 2981,
      "##autif": 2982,
      "##ny": 2983,
      "super": 2984,
      "Ex": 2985,
      "##ep": 2986,
      "##ied": 2987,
      "##man": 2988,
      "##ption": 2989,
      "##vious": 2990,
      "purchased": 2991,
      "excellent": 2992,
      "stuff": 2993,
      "##ecially": 2994,
      "child": 2995,
      "##iet": 2996,
      "call": 2997,
      "disapp": 2998,
      "##ost": 2999,
      "##ider": 3000,
      "hour": 3001,
      "family": 3002,
      "##azing": 3003,
      "##ither": 3004,
      "##lain": 3005,
      "##ump": 3006,
      "rele": 3007,
      "pict": 3008,
      "band": 3009,
      "##esome": 3010,
      "##ides": 3011,
      "heav": 3012,
      "##specially": 3013,
      "##arp": 3014,
      "several": 3015,
      "until": 3016,
      "large": 3017,
      "descri": 3018,
      "hum": 3019,
      "Chr": 3020,
      "fast": 3021,
      "purchase": 3022,
      "exper": 3023,
      "complete": 3024,
      "plastic": 3025,
      "##led": 3026,
      "ac": 3027,
      "gets": 3028,
      "record": 3029,
      "bott": 3030,
      "free": 3031,
      "##aster": 3032,
      "##ruct": 3033,
      "feat": 3034,
      "others": 3035,
      "main": 3036,
      "clear": 3037,
      "ter": 3038,
      "couple": 3039,
      "design": 3040,
      "##ike": 3041,
      "replace": 3042,
      "expected": 3043,
      "CD": 3044,
      "listen": 3045,
      "days": 3046,
      "whole": 3047,
      "least": 3048,
      "cor": 3049,
      "##very": 3050,
      "rep": 3051,
      "##gg": 3052,
      "conn": 3053,
      "perfectly": 3054,
      "Br": 3055,
      "left": 3056,
      "tried": 3057,
      "##dy": 3058,
      "nothing": 3059,
      "inv": 3060,
      "pick": 3061,
      "trying": 3062,
      "card": 3063,
      "sty": 3064,
      "worked": 3065,
      "##hip": 3066,
      "##llow": 3067,
      "##vers": 3068,
      "vide": 3069,
      "enjoyed": 3070,
      "##lic": 3071,
      "ide": 3072,
      "stra": 3073,
      "took": 3074,
      "However": 3075,
      "##ready": 3076,
      "##right": 3077,
      "recei": 3078,
      "norm": 3079,
      "creat": 3080,
      "wish": 3081,
      "##itten": 3082,
      "##irl": 3083,
      "original": 3084,
      "wasn": 3085,
      "disappoint": 3086,
      "##IN": 3087,
      "Works": 3088,
      "deal": 3089,
      "especially": 3090,
      "cap": 3091,
      "##ully": 3092,
      "##ided": 3093,
      "##alf": 3094,
      "spec": 3095,
      "food": 3096,
      "already": 3097,
      "After": 3098,
      "scen": 3099,
      "dire": 3100,
      ".\"": 3101,
      "anyone": 3102,
      "##aughter": 3103,
      "##ility": 3104,
      "Fr": 3105,
      "##ited": 3106,
      "##ody": 3107,
      "months": 3108,
      "Un": 3109,
      "Do": 3110,
      "abs": 3111,
      "##lect": 3112,
      "return": 3113,
      "version": 3114,
      "##ax": 3115,
      "beautif": 3116,
      "perform": 3117,
      "ent": 3118,
      "screen": 3119,
      "wom": 3120,
      "room": 3121,
      "past": 3122,
      "##ird": 3123,
      "line": 3124,
      "De": 3125,
      "making": 3126,
      "happen": 3127,
      "ones": 3128,
      "comfortable": 3129,
      "tast": 3130,
      "amazing": 3131,
      "##AT": 3132,
      "gra": 3133,
      "comm": 3134,
      "exact": 3135,
      "##edi": 3136,
      "##ensive": 3137,
      "##ift": 3138,
      "else": 3139,
      "Also": 3140,
      "....": 3141,
      "val": 3142,
      "lear": 3143,
      "##eng": 3144,
      "##att": 3145,
      "prov": 3146,
      "##oice": 3147,
      "miss": 3148,
      "interesting": 3149,
      "rest": 3150,
      "brand": 3151,
      "##ject": 3152,
      "reviews": 3153,
      "hook": 3154,
      "##ther": 3155,
      "liked": 3156,
      "someone": 3157,
      "kids": 3158,
      "house": 3159,
      "##OT": 3160,
      "night": 3161,
      "\",": 3162,
      "##ton": 3163,
      "##though": 3164,
      "went": 3165,
      "##cess": 3166,
      "##ik": 3167,
      "protect": 3168,
      "cur": 3169,
      "Christ": 3170,
      "##ized": 3171,
      "##ling": 3172,
      "\".": 3173,
      "mod": 3174,
      "son": 3175,
      "fall": 3176,
      "Can": 3177,
      "begin": 3178,
      "##ins": 3179,
      "written": 3180,
      "##utes": 3181,
      "stick": 3182,
      "art": 3183,
      "true": 3184,
      "##ape": 3185,
      "conf": 3186,
      "mind": 3187,
      "cour": 3188,
      "Pr": 3189,
      "conc": 3190,
      "hot": 3191,
      "Sp": 3192,
      "##ED": 3193,
      "star": 3194,
      "et": 3195,
      "novel": 3196,
      "surpr": 3197,
      "Well": 3198,
      "##elt": 3199,
      "pain": 3200,
      "par": 3201,
      "wait": 3202,
      "THE": 3203,
      "seen": 3204,
      "half": 3205,
      "##osed": 3206,
      "ordered": 3207,
      "takes": 3208,
      "live": 3209,
      "##ones": 3210,
      "remo": 3211,
      "cool": 3212,
      "##ouch": 3213,
      "heavy": 3214,
      "##olute": 3215,
      "bro": 3216,
      "##ric": 3217,
      "either": 3218,
      "##cy": 3219,
      "##tain": 3220,
      "bas": 3221,
      "working": 3222,
      "battery": 3223,
      "##fer": 3224,
      "US": 3225,
      "##onest": 3226,
      "soft": 3227,
      "##dd": 3228,
      "cost": 3229,
      "##**": 3230,
      "ass": 3231,
      "doing": 3232,
      "break": 3233,
      "hope": 3234,
      "av": 3235,
      "tool": 3236,
      "pull": 3237,
      "##ired": 3238,
      "understand": 3239,
      "##eric": 3240,
      "##era": 3241,
      "##ertain": 3242,
      "##pped": 3243,
      "##amp": 3244,
      "##pect": 3245,
      "ob": 3246,
      "extra": 3247,
      "highly": 3248,
      "wrong": 3249,
      "level": 3250,
      "Now": 3251,
      "fits": 3252,
      "pres": 3253,
      "##stem": 3254,
      "##mber": 3255,
      "##any": 3256,
      "##iter": 3257,
      "heart": 3258,
      "playing": 3259,
      "pair": 3260,
      "DV": 3261,
      "sch": 3262,
      "etc": 3263,
      "friends": 3264,
      "finish": 3265,
      "form": 3266,
      "##orn": 3267,
      "ok": 3268,
      "contr": 3269,
      "fig": 3270,
      "##press": 3271,
      "num": 3272,
      "minutes": 3273,
      "##aterial": 3274,
      "started": 3275,
      "pop": 3276,
      "##ream": 3277,
      "##ES": 3278,
      "mean": 3279,
      "Pl": 3280,
      "video": 3281,
      "trans": 3282,
      "issues": 3283,
      "sex": 3284,
      "along": 3285,
      "problems": 3286,
      "goes": 3287,
      "post": 3288,
      "##ret": 3289,
      "follow": 3290,
      "##irt": 3291,
      "port": 3292,
      "low": 3293,
      "With": 3294,
      "rather": 3295,
      "Jo": 3296,
      "12": 3297,
      "##ex": 3298,
      "move": 3299,
      "change": 3300,
      "##ress": 3301,
      "normal": 3302,
      "##line": 3303,
      "mom": 3304,
      "##ned": 3305,
      "black": 3306,
      "instead": 3307,
      "unit": 3308,
      "material": 3309,
      "received": 3310,
      "Cl": 3311,
      "longer": 3312,
      "believe": 3313,
      "ago": 3314,
      "##light": 3315,
      "##way": 3316,
      "awesome": 3317,
      "system": 3318,
      "key": 3319,
      "quickly": 3320,
      "##ged": 3321,
      "style": 3322,
      "needs": 3323,
      "beautiful": 3324,
      "ins": 3325,
      "couldn": 3326,
      "##ote": 3327,
      "word": 3328,
      "##asy": 3329,
      "wonderful": 3330,
      "rom": 3331,
      "DVD": 3332,
      "##ured": 3333,
      "##ON": 3334,
      "support": 3335,
      "girl": 3336,
      "certain": 3337,
      "course": 3338,
      "writing": 3339,
      "##ane": 3340,
      "exactly": 3341,
      "direct": 3342,
      "To": 3343,
      "##ren": 3344,
      "hear": 3345,
      "dep": 3346,
      "cat": 3347,
      "type": 3348,
      "200": 3349,
      "hours": 3350,
      "##LL": 3351,
      "##idd": 3352,
      "consider": 3353,
      "##aps": 3354,
      "contin": 3355,
      "quest": 3356,
      "during": 3357,
      "##ices": 3358,
      "sit": 3359,
      "track": 3360,
      "gt": 3361,
      "honest": 3362,
      "##RE": 3363,
      "close": 3364,
      "rock": 3365,
      "connect": 3366,
      "hist": 3367,
      "mess": 3368,
      "##que": 3369,
      "daughter": 3370,
      "##ines": 3371,
      "absolute": 3372,
      "inside": 3373,
      "swe": 3374,
      "https": 3375,
      "##bed": 3376,
      "##ci": 3377,
      "buying": 3378,
      "##aced": 3379,
      "kill": 3380,
      "pol": 3381,
      "Tr": 3382,
      "var": 3383,
      "mag": 3384,
      "##ists": 3385,
      "games": 3386,
      "##ific": 3387,
      "mix": 3388,
      "Nice": 3389,
      "##ared": 3390,
      "however": 3391,
      "chang": 3392,
      "Le": 3393,
      "effect": 3394,
      "near": 3395,
      "camera": 3396,
      "pass": 3397,
      "saw": 3398,
      "myself": 3399,
      "##ilar": 3400,
      "hu": 3401,
      "stay": 3402,
      "Pro": 3403,
      "const": 3404,
      "felt": 3405,
      "Over": 3406,
      "smo": 3407,
      "poss": 3408,
      "##icult": 3409,
      "plot": 3410,
      "##ipping": 3411,
      "##iew": 3412,
      "maybe": 3413,
      "tight": 3414,
      "exc": 3415,
      "gener": 3416,
      "ball": 3417,
      "Will": 3418,
      "complain": 3419,
      "##ron": 3420,
      "loc": 3421,
      "everyone": 3422,
      "build": 3423,
      "store": 3424,
      "pay": 3425,
      "piece": 3426,
      "Don": 3427,
      "weight": 3428,
      "##ilt": 3429,
      "entire": 3430,
      "At": 3431,
      "difficult": 3432,
      "lead": 3433,
      "bra": 3434,
      "fair": 3435,
      "##reme": 3436,
      "##urdy": 3437,
      "201": 3438,
      "Ar": 3439,
      "Americ": 3440,
      "##tern": 3441,
      "15": 3442,
      "##band": 3443,
      "##unch": 3444,
      "mar": 3445,
      "air": 3446,
      "issue": 3447,
      "wouldn": 3448,
      "guess": 3449,
      "bul": 3450,
      "gift": 3451,
      "##na": 3452,
      "often": 3453,
      "100": 3454,
      "##arr": 3455,
      "dist": 3456,
      "view": 3457,
      "idea": 3458,
      "haven": 3459,
      "##gan": 3460,
      "count": 3461,
      "action": 3462,
      "##ky": 3463,
      "requ": 3464,
      "simple": 3465,
      "fill": 3466,
      "##cept": 3467,
      "##anks": 3468,
      "young": 3469,
      "##ength": 3470,
      "Com": 3471,
      "##ss": 3472,
      "gre": 3473,
      "front": 3474,
      "Some": 3475,
      "##ined": 3476,
      "bright": 3477,
      "later": 3478,
      "dark": 3479,
      "control": 3480,
      "mem": 3481,
      "##els": 3482,
      "arri": 3483,
      "ey": 3484,
      "##just": 3485,
      "gave": 3486,
      "##ips": 3487,
      "##ional": 3488,
      "toy": 3489,
      "##ply": 3490,
      "plan": 3491,
      "boy": 3492,
      "appear": 3493,
      "##vent": 3494,
      "switch": 3495,
      "tot": 3496,
      "##aper": 3497,
      "##ior": 3498,
      "stop": 3499,
      "week": 3500,
      "##ants": 3501,
      "##ster": 3502,
      "hor": 3503,
      "completely": 3504,
      "name": 3505,
      "sell": 3506,
      "itself": 3507,
      "##velop": 3508,
      "mark": 3509,
      "##uc": 3510,
      "##dit": 3511,
      "##oll": 3512,
      "##ata": 3513,
      "##antly": 3514,
      "##iness": 3515,
      "single": 3516,
      "picture": 3517,
      "experience": 3518,
      "detail": 3519,
      "##ND": 3520,
      "enter": 3521,
      "beh": 3522,
      "30": 3523,
      "sign": 3524,
      "fant": 3525,
      "##where": 3526,
      "four": 3527,
      "Mar": 3528,
      "treat": 3529,
      "##not": 3530,
      "##!!": 3531,
      "##mas": 3532,
      "solid": 3533,
      "##ept": 3534,
      "deli": 3535,
      "hit": 3536,
      "screw": 3537,
      "imm": 3538,
      "sturdy": 3539,
      "value": 3540,
      "LO": 3541,
      "##ism": 3542,
      "##vies": 3543,
      "##oose": 3544,
      "ste": 3545,
      "metal": 3546,
      "Perf": 3547,
      "##ork": 3548,
      "partic": 3549,
      "cable": 3550,
      "win": 3551,
      "##ient": 3552,
      "dogs": 3553,
      "Exce": 3554,
      "plug": 3555,
      "heard": 3556,
      "grand": 3557,
      "guy": 3558,
      "absolutely": 3559,
      "played": 3560,
      "##ities": 3561,
      "##esh": 3562,
      "touch": 3563,
      "vis": 3564,
      "ap": 3565,
      "white": 3566,
      "stories": 3567,
      "wall": 3568,
      "bar": 3569,
      "check": 3570,
      "speak": 3571,
      "##usband": 3572,
      "test": 3573,
      "While": 3574,
      "##member": 3575,
      "disappointed": 3576,
      "##ww": 3577,
      "##kes": 3578,
      "stud": 3579,
      "bottom": 3580,
      "import": 3581,
      "slow": 3582,
      "press": 3583,
      "Even": 3584,
      "##iced": 3585,
      "##itive": 3586,
      "pos": 3587,
      "Or": 3588,
      "##vert": 3589,
      "cook": 3590,
      "##ouble": 3591,
      "##ien": 3592,
      "sounds": 3593,
      "movies": 3594,
      "##oor": 3595,
      "sle": 3596,
      "develop": 3597,
      "cute": 3598,
      "##fully": 3599,
      "adjust": 3600,
      "##ume": 3601,
      "##ware": 3602,
      "##aid": 3603,
      "##uss": 3604,
      "ep": 3605,
      "school": 3606,
      "previous": 3607,
      "##olog": 3608,
      "**": 3609,
      "##ract": 3610,
      "##uly": 3611,
      "cop": 3612,
      "Is": 3613,
      "matter": 3614,
      "given": 3615,
      "](": 3616,
      "Every": 3617,
      "simply": 3618,
      "forward": 3619,
      "mount": 3620,
      "dam": 3621,
      "##arm": 3622,
      "husband": 3623,
      "sat": 3624,
      "##ases": 3625,
      "##ying": 3626,
      "##ffee": 3627,
      "##OR": 3628,
      "##over": 3629,
      "TV": 3630,
      "##ature": 3631,
      "hands": 3632,
      "slight": 3633,
      "##ray": 3634,
      "feels": 3635,
      "##VE": 3636,
      "##OU": 3637,
      "finally": 3638,
      "Perfect": 3639,
      "expensive": 3640,
      "season": 3641,
      "##ging": 3642,
      "parts": 3643,
      "##EA": 3644,
      "hop": 3645,
      "addition": 3646,
      "impress": 3647,
      "wife": 3648,
      "smaller": 3649,
      "talk": 3650,
      "soon": 3651,
      "##ole": 3652,
      "amount": 3653,
      "handle": 3654,
      "guit": 3655,
      "taste": 3656,
      "glad": 3657,
      "##board": 3658,
      "Excellent": 3659,
      ",\"": 3660,
      "gri": 3661,
      "##IS": 3662,
      "##king": 3663,
      "extreme": 3664,
      "##aj": 3665,
      "phot": 3666,
      "Sc": 3667,
      "relations": 3668,
      "##owing": 3669,
      "##son": 3670,
      "High": 3671,
      "Me": 3672,
      "##ering": 3673,
      "##iny": 3674,
      "carry": 3675,
      "##itting": 3676,
      "wind": 3677,
      "shows": 3678,
      "against": 3679,
      "##lish": 3680,
      "##ef": 3681,
      "bed": 3682,
      "leg": 3683,
      "##lo": 3684,
      "##alth": 3685,
      "match": 3686,
      "lost": 3687,
      "##ances": 3688,
      "data": 3689,
      "usually": 3690,
      "##aces": 3691,
      "##ler": 3692,
      ".)": 3693,
      "dry": 3694,
      "##cket": 3695,
      "Qu": 3696,
      "sometimes": 3697,
      "classic": 3698,
      "gives": 3699,
      "NOT": 3700,
      "www": 3701,
      "##----": 3702,
      "pieces": 3703,
      "mention": 3704,
      "sweet": 3705,
      "opin": 3706,
      "coming": 3707,
      "relationship": 3708,
      "##aving": 3709,
      "non": 3710,
      "May": 3711,
      "##zy": 3712,
      "50": 3713,
      "attach": 3714,
      "cond": 3715,
      "decided": 3716,
      "collection": 3717,
      "##ident": 3718,
      "says": 3719,
      "coffee": 3720,
      "tit": 3721,
      "##ges": 3722,
      "sense": 3723,
      "products": 3724,
      "although": 3725,
      "##ution": 3726,
      "huge": 3727,
      "Overall": 3728,
      "##ires": 3729,
      "mult": 3730,
      "bus": 3731,
      "cent": 3732,
      "roll": 3733,
      "thick": 3734,
      "remember": 3735,
      "##land": 3736,
      "tem": 3737,
      "due": 3738,
      "leave": 3739,
      "##ony": 3740,
      "aren": 3741,
      "pen": 3742,
      "voice": 3743,
      "become": 3744,
      "Then": 3745,
      "shoes": 3746,
      "face": 3747,
      "Su": 3748,
      "cannot": 3749,
      "Christmas": 3750,
      "##ror": 3751,
      "kept": 3752,
      "hol": 3753,
      "##oud": 3754,
      "Its": 3755,
      "similar": 3756,
      "##ator": 3757,
      "particular": 3758,
      "keeps": 3759,
      "men": 3760,
      "comput": 3761,
      "pad": 3762,
      "##ING": 3763,
      "easier": 3764,
      "Ne": 3765,
      "regular": 3766,
      "##cr": 3767,
      "warm": 3768,
      "tech": 3769,
      "sharp": 3770,
      "aud": 3771,
      "space": 3772,
      "colors": 3773,
      "fut": 3774,
      "fans": 3775,
      "larger": 3776,
      "##ne": 3777,
      "special": 3778,
      "##ried": 3779,
      "emot": 3780,
      "##AN": 3781,
      "##oup": 3782,
      "woman": 3783,
      "door": 3784,
      "ending": 3785,
      "feet": 3786,
      "running": 3787,
      "Se": 3788,
      "drive": 3789,
      "contain": 3790,
      "deep": 3791,
      "##aged": 3792,
      "paper": 3793,
      "##gle": 3794,
      "\">": 3795,
      "##play": 3796,
      "result": 3797,
      "prof": 3798,
      "##ustom": 3799,
      "lights": 3800,
      "Easy": 3801,
      "based": 3802,
      "##ken": 3803,
      "##yr": 3804,
      "today": 3805,
      "##isf": 3806,
      "funny": 3807,
      "##ives": 3808,
      "##sc": 3809,
      "pow": 3810,
      "number": 3811,
      "entertain": 3812,
      "##ted": 3813,
      "##hn": 3814,
      "uni": 3815,
      "hero": 3816,
      "##ma": 3817,
      "sme": 3818,
      "##aves": 3819,
      "imag": 3820,
      "truly": 3821,
      "romance": 3822,
      "eng": 3823,
      "##par": 3824,
      "med": 3825,
      "children": 3826,
      "release": 3827,
      "fail": 3828,
      "Thanks": 3829,
      "Her": 3830,
      "##ams": 3831,
      "inform": 3832,
      "##ites": 3833,
      "glass": 3834,
      "sort": 3835,
      "wants": 3836,
      "##rect": 3837,
      "spend": 3838,
      "outside": 3839,
      "Yes": 3840,
      "tal": 3841,
      "smooth": 3842,
      "mot": 3843,
      "##ered": 3844,
      "##ield": 3845,
      "nb": 3846,
      "Thank": 3847,
      "##ney": 3848,
      "amp": 3849,
      "player": 3850,
      "fight": 3851,
      "foot": 3852,
      "Look": 3853,
      "walk": 3854,
      "aff": 3855,
      "prom": 3856,
      "thin": 3857,
      "weeks": 3858,
      "prefer": 3859,
      "avail": 3860,
      "standard": 3861,
      "learn": 3862,
      "##eth": 3863,
      "##co": 3864,
      "pu": 3865,
      "##unk": 3866,
      "flavor": 3867,
      "ann": 3868,
      "nbsp": 3869,
      "watching": 3870,
      "guitar": 3871,
      "pot": 3872,
      "##unately": 3873,
      "exam": 3874,
      "lens": 3875,
      "instruct": 3876,
      "taking": 3877,
      "mach": 3878,
      ".....": 3879,
      "elect": 3880,
      "##enty": 3881,
      "##istic": 3882,
      "included": 3883,
      "within": 3884,
      "vol": 3885,
      "arrived": 3886,
      "future": 3887,
      "##pping": 3888,
      "mine": 3889,
      "##used": 3890,
      "##umb": 3891,
      "extremely": 3892,
      "equ": 3893,
      "rub": 3894,
      ":)": 3895,
      "recommended": 3896,
      "fra": 3897,
      "replacement": 3898,
      "area": 3899,
      "means": 3900,
      "seemed": 3901,
      "apart": 3902,
      "Of": 3903,
      "company": 3904,
      "charge": 3905,
      "opinion": 3906,
      "scenes": 3907,
      "described": 3908,
      "##atur": 3909,
      "tracks": 3910,
      "batteries": 3911,
      "ele": 3912,
      "smell": 3913,
      "er": 3914,
      "serious": 3915,
      "history": 3916,
      "voc": 3917,
      "##sel": 3918,
      "early": 3919,
      "##ister": 3920,
      "mil": 3921,
      "shipping": 3922,
      "difference": 3923,
      "##net": 3924,
      "##sy": 3925,
      "Like": 3926,
      "##ube": 3927,
      "http": 3928,
      "terri": 3929,
      "##IT": 3930,
      "self": 3931,
      "John": 3932,
      "##iety": 3933,
      "inch": 3934,
      "hang": 3935,
      "poor": 3936,
      "occ": 3937,
      "11": 3938,
      "##wise": 3939,
      "device": 3940,
      "Other": 3941,
      "pan": 3942,
      "lack": 3943,
      "told": 3944,
      "##TF": 3945,
      "bor": 3946,
      "available": 3947,
      "##atic": 3948,
      "##aging": 3949,
      "important": 3950,
      "##erg": 3951,
      "knife": 3952,
      "##mb": 3953,
      "##oub": 3954,
      "##OO": 3955,
      "sugg": 3956,
      "suggest": 3957,
      "##by": 3958,
      "proper": 3959,
      "scr": 3960,
      "draw": 3961,
      "##gra": 3962,
      "cats": 3963,
      "Would": 3964,
      "knew": 3965,
      "overall": 3966,
      "impro": 3967,
      "##ining": 3968,
      "comb": 3969,
      "##br": 3970,
      "computer": 3971,
      "##aken": 3972,
      "id": 3973,
      "##asing": 3974,
      "##acing": 3975,
      "##mit": 3976,
      "yourself": 3977,
      "susp": 3978,
      "cast": 3979,
      "present": 3980,
      "doll": 3981,
      "advert": 3982,
      "performance": 3983,
      "sens": 3984,
      "built": 3985,
      "New": 3986,
      "##ann": 3987,
      "button": 3988,
      "wire": 3989,
      "five": 3990,
      "pleased": 3991,
      "custom": 3992,
      "##ross": 3993,
      "##ising": 3994,
      "older": 3995,
      "##ajor": 3996,
      "fantastic": 3997,
      "cab": 3998,
      "looked": 3999,
      "##ument": 4000,
      "figure": 4001,
      "##_t": 4002,
      "lots": 4003,
      "First": 4004,
      "thinking": 4005,
      "##AS": 4006,
      "##lt": 4007,
      "feature": 4008,
      "##ipped": 4009,
      "lab": 4010,
      "human": 4011,
      "albums": 4012,
      "behind": 4013,
      "allow": 4014,
      "ie": 4015,
      "sent": 4016,
      "##_d": 4017,
      "##ina": 4018,
      "##alt": 4019,
      "wash": 4020,
      "base": 4021,
      "beat": 4022,
      "cord": 4023,
      "plus": 4024,
      "di": 4025,
      "##aby": 4026,
      "called": 4027,
      "iP": 4028,
      "eat": 4029,
      "Any": 4030,
      "service": 4031,
      "opp": 4032,
      "##isod": 4033,
      "##apt": 4034,
      "##ination": 4035,
      "satisf": 4036,
      "decent": 4037,
      "dev": 4038,
      "beginning": 4039,
      "##my": 4040,
      "##ital": 4041,
      "##iddle": 4042,
      "##ison": 4043,
      "fre": 4044,
      "##ustr": 4045,
      "rad": 4046,
      "##ench": 4047,
      "table": 4048,
      "##apter": 4049,
      "supposed": 4050,
      "God": 4051,
      "guys": 4052,
      "features": 4053,
      "clos": 4054,
      "foc": 4055,
      "##ung": 4056,
      "fix": 4057,
      "linked": 4058,
      "##AR": 4059,
      "lock": 4060,
      "Im": 4061,
      "##ether": 4062,
      "body": 4063,
      "fa": 4064,
      "length": 4065,
      "Ad": 4066,
      "giving": 4067,
      "sad": 4068,
      "page": 4069,
      "yes": 4070,
      "##ades": 4071,
      "En": 4072,
      "bring": 4073,
      "slightly": 4074,
      "wood": 4075,
      "dp": 4076,
      "Con": 4077,
      "curr": 4078,
      "access": 4079,
      "uses": 4080,
      "##iding": 4081,
      "women": 4082,
      "travel": 4083,
      "durable": 4084,
      "##room": 4085,
      "##arch": 4086,
      "correct": 4087,
      "##erm": 4088,
      "certainly": 4089,
      "##haps": 4090,
      "saying": 4091,
      "resp": 4092,
      "cm": 4093,
      "##zz": 4094,
      "mother": 4095,
      "major": 4096,
      "His": 4097,
      "IT": 4098,
      "speed": 4099,
      "chance": 4100,
      "18": 4101,
      "##oof": 4102,
      "Car": 4103,
      "##_r": 4104,
      "turned": 4105,
      "reader": 4106,
      "UTF": 4107,
      "##fortunately": 4108,
      "##to": 4109,
      "##_cr": 4110,
      "##rew": 4111,
      "##ming": 4112,
      "25": 4113,
      "UTF8": 4114,
      "added": 4115,
      "##und": 4116,
      "##cle": 4117,
      "##roll": 4118,
      "words": 4119,
      "##lex": 4120,
      "filter": 4121,
      "American": 4122,
      "mor": 4123,
      "including": 4124,
      "model": 4125,
      "health": 4126,
      "##date": 4127,
      "personal": 4128,
      "Ph": 4129,
      "holds": 4130,
      "straight": 4131,
      "images": 4132,
      "##ref": 4133,
      "totally": 4134,
      "range": 4135,
      "##ccess": 4136,
      "##ended": 4137,
      "tun": 4138,
      "Fl": 4139,
      "squ": 4140,
      "save": 4141,
      "obvious": 4142,
      "##mer": 4143,
      "write": 4144,
      "##ills": 4145,
      "group": 4146,
      "techn": 4147,
      "##rod": 4148,
      "cm_cr": 4149,
      "##selves": 4150,
      "liter": 4151,
      "dig": 4152,
      "cm_cr_": 4153,
      "Oh": 4154,
      "gun": 4155,
      "opt": 4156,
      "print": 4157,
      "age": 4158,
      "##eah": 4159,
      "##ibly": 4160,
      "##aim": 4161,
      "Lo": 4162,
      "laugh": 4163,
      "anim": 4164,
      "purp": 4165,
      "##vw": 4166,
      "event": 4167,
      "##EN": 4168,
      "push": 4169,
      "##raph": 4170,
      "episod": 4171,
      "happened": 4172,
      "href": 4173,
      "feeling": 4174,
      "##arp_d": 4175,
      "cm_cr_arp_d": 4176,
      "##_rvw": 4177,
      "himself": 4178,
      "=\"/": 4179,
      "##_txt": 4180,
      "cm_cr_arp_d_rvw": 4181,
      "cm_cr_arp_d_rvw_txt": 4182,
      "ble": 4183,
      "Bought": 4184,
      "possible": 4185,
      "situ": 4186,
      "##ern": 4187,
      "##urt": 4188,
      "16": 4189,
      "drop": 4190,
      "##like": 4191,
      "flash": 4192,
      "nicely": 4193,
      "except": 4194,
      "title": 4195,
      "Does": 4196,
      "blue": 4197,
      "oil": 4198,
      "##ision": 4199,
      "items": 4200,
      "moder": 4201,
      "function": 4202,
      "##bers": 4203,
      "installed": 4204,
      "##ring": 4205,
      "##put": 4206,
      "likes": 4207,
      "##sw": 4208,
      "team": 4209,
      "text": 4210,
      "ended": 4211,
      "immedi": 4212,
      "##reci": 4213,
      "tend": 4214,
      "##ories": 4215,
      "Maybe": 4216,
      "father": 4217,
      "turns": 4218,
      "expl": 4219,
      "process": 4220,
      "##work": 4221,
      "setting": 4222,
      "##com": 4223,
      "drink": 4224,
      "remove": 4225,
      "pub": 4226,
      "AND": 4227,
      "becom": 4228,
      "catch": 4229,
      "instructions": 4230,
      "surprised": 4231,
      "local": 4232,
      "incred": 4233,
      "##uth": 4234,
      "information": 4235,
      "death": 4236,
      "summ": 4237,
      "scene": 4238,
      "lives": 4239,
      "40": 4240,
      "dead": 4241,
      "wide": 4242,
      "ca": 4243,
      "cup": 4244,
      "comment": 4245,
      "Us": 4246,
      "##use": 4247,
      "copy": 4248,
      "shoot": 4249,
      "##ppy": 4250,
      "stri": 4251,
      "Best": 4252,
      "Only": 4253,
      "country": 4254,
      "flat": 4255,
      "##uring": 4256,
      "note": 4257,
      "helps": 4258,
      "alone": 4259,
      "hate": 4260,
      "annoy": 4261,
      "machine": 4262,
      "##he": 4263,
      "bigger": 4264,
      "USB": 4265,
      "soc": 4266,
      "success": 4267,
      "##anger": 4268,
      "##ley": 4269,
      "appreci": 4270,
      "##IC": 4271,
      "attention": 4272,
      "pract": 4273,
      "adv": 4274,
      "lay": 4275,
      "Dis": 4276,
      "feed": 4277,
      "B00": 4278,
      "fairly": 4279,
      "knows": 4280,
      "across": 4281,
      "question": 4282,
      "scratch": 4283,
      "advertised": 4284,
      "multip": 4285,
      "business": 4286,
      "progra": 4287,
      "##oon": 4288,
      "above": 4289,
      "Why": 4290,
      "effort": 4291,
      "##ability": 4292,
      "fresh": 4293,
      "notice": 4294,
      "ill": 4295,
      "##ls": 4296,
      "trip": 4297,
      "##let": 4298,
      "burn": 4299,
      "##con": 4300,
      "##ox": 4301,
      "cd": 4302,
      "putting": 4303,
      "fire": 4304,
      "third": 4305,
      "Really": 4306,
      "gar": 4307,
      "project": 4308,
      "##what": 4309,
      "hair": 4310,
      "Man": 4311,
      "master": 4312,
      "##asure": 4313,
      "##OM": 4314,
      "Cr": 4315,
      "jo": 4316,
      "##ze": 4317,
      "##oph": 4318,
      "##cing": 4319,
      "reddit": 4320,
      "block": 4321,
      "compared": 4322,
      "Eng": 4323,
      "plenty": 4324,
      "##ains": 4325,
      "Although": 4326,
      "##yn": 4327,
      "Still": 4328,
      "##wards": 4329,
      "lyr": 4330,
      "cold": 4331,
      "tea": 4332,
      "happens": 4333,
      "edge": 4334,
      "pages": 4335,
      "##iction": 4336,
      "##iod": 4337,
      "narr": 4338,
      "##face": 4339,
      "middle": 4340,
      "##outh": 4341,
      "Ste": 4342,
      "seeing": 4343,
      "gone": 4344,
      "fur": 4345,
      "camp": 4346,
      "##ivid": 4347,
      "Tw": 4348,
      "##erc": 4349,
      "sold": 4350,
      "ant": 4351,
      "oper": 4352,
      "invol": 4353,
      "taken": 4354,
      "enc": 4355,
      "package": 4356,
      "da": 4357,
      "ground": 4358,
      "Did": 4359,
      "choice": 4360,
      "loose": 4361,
      "known": 4362,
      "prin": 4363,
      "##itter": 4364,
      "cards": 4365,
      "cal": 4366,
      "HD": 4367,
      "pictures": 4368,
      "##ears": 4369,
      "mic": 4370,
      "unless": 4371,
      "organ": 4372,
      "fuck": 4373,
      "##gn": 4374,
      "##rant": 4375,
      "broke": 4376,
      "meet": 4377,
      "Highly": 4378,
      "dest": 4379,
      "##uced": 4380,
      "plays": 4381,
      "released": 4382,
      "example": 4383,
      "themselves": 4384,
      "##ude": 4385,
      "##arely": 4386,
      "answ": 4387,
      "##ding": 4388,
      "Pe": 4389,
      "##pite": 4390,
      "reach": 4391,
      "##atever": 4392,
      "adult": 4393,
      "Once": 4394,
      "safe": 4395,
      "##oop": 4396,
      "Most": 4397,
      "##pper": 4398,
      "Mr": 4399,
      "fing": 4400,
      "##ential": 4401,
      "board": 4402,
      "Black": 4403,
      "invest": 4404,
      "##back": 4405,
      "##ued": 4406,
      "##empt": 4407,
      "Have": 4408,
      "send": 4409,
      "Inst": 4410,
      "cheaper": 4411,
      "mostly": 4412,
      "held": 4413,
      "heat": 4414,
      "13": 4415,
      "##ences": 4416,
      "14": 4417,
      "throughout": 4418,
      "See": 4419,
      "##aded": 4420,
      "##0s": 4421,
      "doub": 4422,
      "fab": 4423,
      "##EE": 4424,
      "##ading": 4425,
      "broken": 4426,
      "##itchen": 4427,
      "accur": 4428,
      "##UT": 4429,
      "##izes": 4430,
      "Another": 4431,
      "Ser": 4432,
      "##ett": 4433,
      "vi": 4434,
      "immediately": 4435,
      "sil": 4436,
      "moving": 4437,
      "floor": 4438,
      "</": 4439,
      "living": 4440,
      "likely": 4441,
      "eyes": 4442,
      "Up": 4443,
      "Char": 4444,
      "mis": 4445,
      "!)": 4446,
      "##__": 4447,
      "bow": 4448,
      "pocket": 4449,
      "sets": 4450,
      "##earch": 4451,
      "period": 4452,
      "construct": 4453,
      "somewhat": 4454,
      "explain": 4455,
      "Super": 4456,
      "Jack": 4457,
      "starts": 4458,
      "##ads": 4459,
      "IS": 4460,
      "separ": 4461,
      "##ounter": 4462,
      "search": 4463,
      "##gress": 4464,
      "dem": 4465,
      "focus": 4466,
      "##ries": 4467,
      "War": 4468,
      "Was": 4469,
      "flaw": 4470,
      "cir": 4471,
      "neg": 4472,
      "higher": 4473,
      "ways": 4474,
      "luck": 4475,
      "##ST": 4476,
      "##more": 4477,
      "grip": 4478,
      "films": 4479,
      "market": 4480,
      "Pre": 4481,
      "kit": 4482,
      "rubber": 4483,
      "##OW": 4484,
      "butt": 4485,
      "##ians": 4486,
      "##ium": 4487,
      "tre": 4488,
      "##aker": 4489,
      "##body": 4490,
      "Rob": 4491,
      "ends": 4492,
      "##oid": 4493,
      "##lus": 4494,
      "interested": 4495,
      "blade": 4496,
      "unique": 4497,
      "myst": 4498,
      "##enn": 4499,
      "Go": 4500,
      "message": 4501,
      "useful": 4502,
      "##orry": 4503,
      "opening": 4504,
      "late": 4505,
      "dro": 4506,
      "loud": 4507,
      "okay": 4508,
      "sto": 4509,
      "state": 4510,
      "capt": 4511,
      "Sm": 4512,
      "baby": 4513,
      "agree": 4514,
      "actual": 4515,
      "shot": 4516,
      "lower": 4517,
      "ready": 4518,
      "necess": 4519,
      "wheel": 4520,
      "cause": 4521,
      "##ology": 4522,
      "round": 4523,
      "##uf": 4524,
      "##ension": 4525,
      "missing": 4526,
      "ask": 4527,
      "##ulous": 4528,
      "##uce": 4529,
      "appro": 4530,
      "##irm": 4531,
      "Ed": 4532,
      "Rec": 4533,
      "##ises": 4534,
      "chew": 4535,
      "sett": 4536,
      "Gl": 4537,
      "bike": 4538,
      "party": 4539,
      "sleep": 4540,
      "##book": 4541,
      "LED": 4542,
      "##ground": 4543,
      "nut": 4544,
      "continue": 4545,
      "online": 4546,
      "acting": 4547,
      "Bu": 4548,
      "nearly": 4549,
      "tape": 4550,
      "stock": 4551,
      "##ational": 4552,
      "From": 4553,
      "Aw": 4554,
      "bal": 4555,
      "mel": 4556,
      "LOVE": 4557,
      "radio": 4558,
      "El": 4559,
      "##attle": 4560,
      "town": 4561,
      "##ERY": 4562,
      "##ograph": 4563,
      "Sim": 4564,
      "paid": 4565,
      "recently": 4566,
      "enjoyable": 4567,
      "Def": 4568,
      "TO": 4569,
      "whatever": 4570,
      "##eter": 4571,
      "##ili": 4572,
      "option": 4573,
      "listening": 4574,
      "##bing": 4575,
      "attempt": 4576,
      "moment": 4577,
      "cart": 4578,
      "##ented": 4579,
      "brother": 4580,
      "teach": 4581,
      "##irth": 4582,
      "sou": 4583,
      "##head": 4584,
      "contact": 4585,
      "seat": 4586,
      "ON": 4587,
      "crazy": 4588,
      "vac": 4589,
      "please": 4590,
      "recording": 4591,
      "mist": 4592,
      "##verage": 4593,
      "##ency": 4594,
      "comments": 4595,
      "waste": 4596,
      "impressed": 4597,
      "##row": 4598,
      "##izing": 4599,
      "keeping": 4600,
      "kitchen": 4601,
      "##ury": 4602,
      "fem": 4603,
      "points": 4604,
      "skin": 4605,
      "bottle": 4606,
      "lyrics": 4607,
      "asse": 4608,
      "wearing": 4609,
      "purpose": 4610,
      "powerful": 4611,
      "chall": 4612,
      "research": 4613,
      "remote": 4614,
      "talking": 4615,
      "sand": 4616,
      "##atural": 4617,
      "introd": 4618,
      "herself": 4619,
      "Since": 4620,
      "changed": 4621,
      "Har": 4622,
      "polit": 4623,
      "##eed": 4624,
      "##go": 4625,
      "step": 4626,
      "##aught": 4627,
      "net": 4628,
      "humor": 4629,
      "##50": 4630,
      "##vable": 4631,
      "sun": 4632,
      "green": 4633,
      "rid": 4634,
      "shoe": 4635,
      "surv": 4636,
      "entertaining": 4637,
      "Te": 4638,
      "multiple": 4639,
      "##uit": 4640,
      "crit": 4641,
      "bass": 4642,
      "##rap": 4643,
      "compar": 4644,
      "Your": 4645,
      "law": 4646,
      "Our": 4647,
      "##sh": 4648,
      "protection": 4649,
      "##yl": 4650,
      "##illi": 4651,
      "Fin": 4652,
      "accept": 4653,
      "remind": 4654,
      "##LY": 4655,
      "thanks": 4656,
      "holding": 4657,
      "trouble": 4658,
      "##orge": 4659,
      "mystery": 4660,
      "spo": 4661,
      "Mc": 4662,
      "grow": 4663,
      "OK": 4664,
      "spot": 4665,
      "App": 4666,
      "fully": 4667,
      "noticed": 4668,
      "pants": 4669,
      "suff": 4670,
      "thread": 4671,
      "designed": 4672,
      "##gar": 4673,
      "##...": 4674,
      "anyway": 4675,
      "charger": 4676,
      "ability": 4677,
      "various": 4678,
      "hoping": 4679,
      "ST": 4680,
      "land": 4681,
      "amazon": 4682,
      "##mp": 4683,
      "shape": 4684,
      "brush": 4685,
      "dim": 4686,
      "exist": 4687,
      "replaced": 4688,
      "fi": 4689,
      "##change": 4690,
      "profess": 4691,
      "questions": 4692,
      "tools": 4693,
      "##ask": 4694,
      "Tra": 4695,
      "toys": 4696,
      "##using": 4697,
      "players": 4698,
      "##icks": 4699,
      "holes": 4700,
      "onto": 4701,
      "##](": 4702,
      "##edium": 4703,
      "##rig": 4704,
      "position": 4705,
      "##ufact": 4706,
      "claim": 4707,
      "Here": 4708,
      "realize": 4709,
      "advent": 4710,
      "cri": 4711,
      "thank": 4712,
      "weak": 4713,
      "Bar": 4714,
      "annoying": 4715,
      "volume": 4716,
      "##aptop": 4717,
      "60": 4718,
      "provide": 4719,
      "basically": 4720,
      "Bec": 4721,
      "condition": 4722,
      "Gre": 4723,
      "Col": 4724,
      "whether": 4725,
      "24": 4726,
      "##itions": 4727,
      "eye": 4728,
      "Unfortunately": 4729,
      "noise": 4730,
      "dial": 4731,
      "mouse": 4732,
      "##ET": 4733,
      "##omb": 4734,
      "secure": 4735,
      "twice": 4736,
      "lose": 4737,
      "mur": 4738,
      "rate": 4739,
      "waiting": 4740,
      "THIS": 4741,
      "mid": 4742,
      "fold": 4743,
      "parents": 4744,
      "quiet": 4745,
      ";<": 4746,
      "sides": 4747,
      "##ball": 4748,
      "handy": 4749,
      "conv": 4750,
      "spent": 4751,
      "perhaps": 4752,
      "graph": 4753,
      "twist": 4754,
      "arm": 4755,
      "##box": 4756,
      "refer": 4757,
      "finished": 4758,
      "forget": 4759,
      "tank": 4760,
      "damage": 4761,
      "hole": 4762,
      "##urch": 4763,
      "##ards": 4764,
      "Per": 4765,
      "##set": 4766,
      "bags": 4767,
      "mode": 4768,
      "##min": 4769,
      "leaves": 4770,
      "deb": 4771,
      "tough": 4772,
      "la": 4773,
      "ra": 4774,
      "Che": 4775,
      "headph": 4776,
      "Ag": 4777,
      "allows": 4778,
      "##ening": 4779,
      "##itor": 4780,
      "##acy": 4781,
      "lines": 4782,
      "sequ": 4783,
      "IN": 4784,
      "dream": 4785,
      "daily": 4786,
      "discover": 4787,
      "##wood": 4788,
      "strug": 4789,
      "manufact": 4790,
      "final": 4791,
      "tiny": 4792,
      "mentioned": 4793,
      "laptop": 4794,
      "lim": 4795,
      "Ple": 4796,
      "cases": 4797,
      "##EC": 4798,
      "##IG": 4799,
      "spray": 4800,
      "Awesome": 4801,
      "subject": 4802,
      "fish": 4803,
      "minute": 4804,
      "occas": 4805,
      "##por": 4806,
      "Dr": 4807,
      "insp": 4808,
      "throw": 4809,
      "est": 4810,
      "depend": 4811,
      "paint": 4812,
      "##idge": 4813,
      "modern": 4814,
      "dirt": 4815,
      "experien": 4816,
      "rating": 4817,
      "became": 4818,
      "general": 4819,
      "cho": 4820,
      "ru": 4821,
      "thrill": 4822,
      "results": 4823,
      "By": 4824,
      "attack": 4825,
      "##lier": 4826,
      "commun": 4827,
      "jour": 4828,
      "collect": 4829,
      "improve": 4830,
      "##ipe": 4831,
      "Mich": 4832,
      "double": 4833,
      "trust": 4834,
      "role": 4835,
      "sour": 4836,
      "bath": 4837,
      "Get": 4838,
      "sister": 4839,
      "pump": 4840,
      "infl": 4841,
      "##retch": 4842,
      "jump": 4843,
      "##eds": 4844,
      "Mo": 4845,
      "##illy": 4846,
      "horri": 4847,
      "circ": 4848,
      "update": 4849,
      "##lim": 4850,
      "stuck": 4851,
      "upgr": 4852,
      "deliver": 4853,
      "##AY": 4854,
      "##gest": 4855,
      "summer": 4856,
      "##for": 4857,
      "lol": 4858,
      "##AC": 4859,
      "##eal": 4860,
      "otherwise": 4861,
      "connection": 4862,
      "places": 4863,
      "current": 4864,
      "##aur": 4865,
      "fell": 4866,
      "##ady": 4867,
      "average": 4868,
      "bud": 4869,
      "brought": 4870,
      "fly": 4871,
      "ben": 4872,
      "dish": 4873,
      "clearly": 4874,
      "wik": 4875,
      "viol": 4876,
      "becomes": 4877,
      "Who": 4878,
      "display": 4879,
      "OF": 4880,
      "pat": 4881,
      "Gr": 4882,
      "Because": 4883,
      "Let": 4884,
      "shel": 4885,
      "moments": 4886,
      "##orable": 4887,
      "keyboard": 4888,
      "flow": 4889,
      "##asc": 4890,
      "doubt": 4891,
      "description": 4892,
      "##icle": 4893,
      "basic": 4894,
      "literally": 4895,
      "##ify": 4896,
      "birth": 4897,
      "Star": 4898,
      "wonder": 4899,
      "ride": 4900,
      "Ok": 4901,
      "##unt": 4902,
      "die": 4903,
      "audio": 4904,
      "deser": 4905,
      "worry": 4906,
      "cred": 4907,
      "excited": 4908,
      "PC": 4909,
      "surface": 4910,
      "##res": 4911,
      "80": 4912,
      "starting": 4913,
      "cloth": 4914,
      "runs": 4915,
      "Got": 4916,
      "controll": 4917,
      "##PS": 4918,
      "production": 4919,
      "##uty": 4920,
      "trad": 4921,
      "histor": 4922,
      "Looks": 4923,
      "software": 4924,
      "individ": 4925,
      "199": 4926,
      "brilli": 4927,
      "bri": 4928,
      "vocals": 4929,
      "altern": 4930,
      "Somet": 4931,
      "##iner": 4932,
      "##AL": 4933,
      "seller": 4934,
      "strap": 4935,
      "Red": 4936,
      "##EM": 4937,
      "shit": 4938,
      "gotten": 4939,
      "cant": 4940,
      "deg": 4941,
      "bon": 4942,
      "exchange": 4943,
      "div": 4944,
      "Fits": 4945,
      "PS": 4946,
      "##chan": 4947,
      "anymore": 4948,
      "incre": 4949,
      "cleaning": 4950,
      "delivery": 4951,
      "ess": 4952,
      "Out": 4953,
      "variety": 4954,
      "17": 4955,
      "speakers": 4956,
      "##een": 4957,
      "##cent": 4958,
      "##erv": 4959,
      "attract": 4960,
      "effective": 4961,
      "tow": 4962,
      "complaint": 4963,
      "buttons": 4964,
      "road": 4965,
      "##ogue": 4966,
      "ring": 4967,
      "lid": 4968,
      "imagine": 4969,
      "changes": 4970,
      "finding": 4971,
      "worse": 4972,
      "usual": 4973,
      "filled": 4974,
      "ur": 4975,
      "clip": 4976,
      "##rop": 4977,
      "##antic": 4978,
      "office": 4979,
      "##ival": 4980,
      "owned": 4981,
      "storage": 4982,
      "date": 4983,
      "finds": 4984,
      "##ened": 4985,
      "consist": 4986,
      "medium": 4987,
      "frustr": 4988,
      "bulbs": 4989,
      "appears": 4990,
      "upon": 4991,
      "Both": 4992,
      "cables": 4993,
      "Ge": 4994,
      "##itty": 4995,
      "cult": 4996,
      "background": 4997,
      "forg": 4998,
      "pressure": 4999
    },
    "merges": [
      "t ##h",
      "##e ##r",
      "th ##e",
      "##i ##n",
      "##n ##d",
      "##o ##r",
      "##a ##t",
      "##o ##u",
      "##e ##s",
      "##in ##g",
      "##o ##n",
      "##e ##d",
      "t ##o",
      "a ##nd",
      "##e ##n",
      "##l ##l",
      "##i ##t",
      "##i ##s",
      "##a ##r",
      "##a ##s",
      "##a ##n",
      "##r ##e",
      "o ##f",
      "i ##t",
      "i ##n",
      "##o ##m",
      "##l ##e",
      "##i ##c",
      "i ##s",
      "##u ##t",
      "##o ##t",
      "##v ##e",
      "r ##e",
      "o ##n",
      "##e ##t",
      "T ##h",
      "##s ##t",
      "##a ##l",
      "##l ##y",
      "f ##or",
      "##o ##o",
      "##c ##t",
      "h ##a",
      "b ##e",
      "##g ##h",
      "##s ##e",
      "##o ##w",
      "s ##t",
      "w ##h",
      "y ##ou",
      "th ##at",
      "th ##is",
      "##a ##y",
      "##it ##h",
      "##c ##h",
      "##l ##d",
      "##i ##on",
      "##a ##d",
      "w ##ith",
      "##a ##ll",
      "##en ##t",
      "##i ##d",
      "##v ##er",
      "##t ##er",
      "w ##as",
      "##u ##r",
      "##c ##e",
      "p ##r",
      "Th ##e",
      "##m ##e",
      "##k ##e",
      "l ##i",
      "b ##ut",
      "m ##y",
      "##i ##r",
      "a ##s",
      "##c ##k",
      "a ##n",
      "##gh ##t",
      "n ##ot",
      "##t ##h",
      "s ##h",
      "ha ##ve",
      "##er ##e",
      "##i ##ll",
      "##e ##e",
      "a ##re",
      "##oo ##k",
      "s ##o",
      "##r ##a",
      "##r ##i",
      "h ##e",
      "##ou ##ld",
      "d ##o",
      "##all ##y",
      "##u ##st",
      "c ##h",
      "w ##e",
      "##re ##at",
      "##i ##l",
      "##er ##s",
      "##b ##le",
      "a ##l",
      "n ##e",
      "c ##om",
      "##p ##p",
      "##oo ##d",
      "##or ##e",
      "w ##or",
      "##es ##s",
      "##es ##t",
      "##i ##e",
      "##e ##ct",
      "pr ##o",
      "I ##t",
      "##i ##m",
      "o ##r",
      "e ##x",
      "l ##o",
      "##g ##e",
      "##a ##m",
      "on ##e",
      "a ##t",
      "##u ##l",
      "##om ##e",
      "m ##e",
      "##er ##y",
      "the ##y",
      "##an ##t",
      "li ##ke",
      "##ic ##e",
      "f ##r",
      "d ##e",
      "s ##u",
      "p ##l",
      "##o ##l",
      "a ##ll",
      "c ##an",
      "##ou ##t",
      "##o ##p",
      "##a ##in",
      "##u ##s",
      "##u ##m",
      "##u ##n",
      "##as ##t",
      "o ##ut",
      "##i ##ght",
      "u ##p",
      "c ##on",
      "m ##o",
      "s ##e",
      "##on ##g",
      "##a ##ck",
      "Th ##is",
      "a ##b",
      "g ##reat",
      "##i ##f",
      "##on ##e",
      "j ##ust",
      "g ##et",
      "##a ##k",
      "##. ##.",
      "fr ##om",
      "##ar ##t",
      "##ar ##d",
      "g ##ood",
      "##ou ##gh",
      "##is ##t",
      "v ##ery",
      "the ##m",
      "e ##n",
      "b ##ook",
      "wor ##k",
      "##ou ##nd",
      "m ##ore",
      "##at ##e",
      "##i ##ve",
      "h ##as",
      "w ##ould",
      "##a ##p",
      "w ##ill",
      "h ##er",
      "##e ##ar",
      "##a ##me",
      "##h ##er",
      "q ##u",
      "##in ##d",
      "##a ##u",
      "##i ##es",
      "##a ##nd",
      "##i ##g",
      "##a ##ct",
      "##at ##ion",
      "u ##s",
      "##or ##t",
      "##o ##s",
      "##a ##ble",
      "ab ##out",
      "##v ##en",
      "s ##p",
      "##it ##y",
      "s ##ome",
      "##i ##me",
      "ha ##d",
      "i ##f",
      "we ##ll",
      "n ##o",
      "wh ##en",
      "##it ##e",
      "##a ##g",
      "re ##ad",
      "##in ##k",
      "##it ##t",
      "t ##r",
      "an ##y",
      "##a ##ke",
      "th ##an",
      "g ##o",
      "you ##r",
      "s ##ee",
      "##in ##e",
      "o ##th",
      "##ic ##k",
      "##u ##ct",
      "the ##se",
      "a ##m",
      "##e ##l",
      "h ##is",
      "wh ##at",
      "t ##ime",
      "u ##n",
      "l ##e",
      "c ##o",
      "b ##y",
      "##er ##f",
      "##id ##e",
      ". ##..",
      "##or ##y",
      "##ic ##h",
      "re ##ally",
      "e ##ver",
      "a ##d",
      "u ##se",
      "##r ##o",
      "be ##c",
      "lo ##ve",
      "c ##l",
      "com ##p",
      "d ##id",
      "b ##u",
      "wh ##o",
      "a ##r",
      "##u ##e",
      "##a ##b",
      "in ##t",
      "k ##n",
      "##v ##ie",
      "##a ##v",
      "##u ##ch",
      "##u ##re",
      "do ##es",
      "oth ##er",
      "re ##c",
      "l ##ook",
      "##m ##ent",
      "##ou ##s",
      "##as ##e",
      "##s ##o",
      "##i ##z",
      "to ##o",
      "th ##ere",
      "sh ##e",
      "##au ##se",
      "m ##uch",
      "s ##c",
      "##e ##m",
      "on ##ly",
      "pro ##d",
      "ex ##p",
      "##i ##p",
      "##ou ##ght",
      "##ay ##s",
      "d ##on",
      "m ##an",
      "##f ##f",
      "b ##et",
      "##v ##ed",
      "o ##ver",
      "wh ##ich",
      "f ##e",
      "##ow ##n",
      "of ##f",
      "prod ##uct",
      "ch ##ar",
      "h ##ow",
      "ne ##ed",
      "w ##ant",
      "##o ##y",
      "the ##ir",
      "##p ##t",
      "##ad ##e",
      "bec ##ause",
      "W ##h",
      "##a ##ch",
      "p ##re",
      "##ou ##r",
      "##v ##es",
      "##itt ##le",
      "w ##ere",
      "y ##ear",
      "##e ##nd",
      "##a ##ge",
      "##ir ##st",
      "##a ##ce",
      "a ##g",
      "##f ##ter",
      "e ##as",
      "st ##ory",
      "##as ##s",
      "##is ##h",
      "t ##w",
      "i ##m",
      "##e ##ll",
      "l ##ittle",
      "##ing ##s",
      "ever ##y",
      "f ##l",
      "b ##ack",
      "##r ##y",
      "e ##ven",
      "##o ##nd",
      "##i ##le",
      "##h ##ing",
      "d ##is",
      "be ##en",
      "s ##m",
      "c ##ould",
      "v ##e",
      "al ##so",
      "##in ##t",
      "##a ##c",
      "##o ##se",
      "##u ##d",
      "##en ##s",
      "p ##erf",
      "##ee ##l",
      "f ##irst",
      "p ##o",
      "a ##ct",
      "int ##o",
      "th ##ink",
      "##i ##gh",
      "pl ##ay",
      "w ##r",
      "##if ##f",
      "##al ##ity",
      "##ee ##p",
      "b ##l",
      "##o ##d",
      "##at ##ch",
      "##ion ##s",
      "##i ##re",
      "kn ##ow",
      "##m ##s",
      "##0 ##0",
      "M ##y",
      "##t ##ing",
      "w ##ay",
      "##ar ##e",
      "s ##er",
      "##t ##t",
      "th ##r",
      "##u ##ll",
      "##ot ##her",
      "The ##y",
      "##e ##c",
      "##ur ##n",
      "##an ##s",
      "##ot ##h",
      "I ##f",
      "##at ##er",
      "##p ##l",
      "s ##et",
      "bet ##ter",
      "a ##fter",
      "##ou ##n",
      "st ##ill",
      "##k ##s",
      "##v ##ing",
      "con ##t",
      "m ##ake",
      "tw ##o",
      "##re ##e",
      "##a ##z",
      "ne ##w",
      "##d ##er",
      "e ##nd",
      "##an ##ce",
      "l ##ong",
      "d ##iff",
      "p ##art",
      "in ##st",
      "r ##o",
      "bu ##y",
      "##p ##er",
      "##i ##ly",
      "p ##e",
      "##i ##ous",
      "d ##es",
      "s ##a",
      "m ##ade",
      "f ##it",
      "##ak ##es",
      "the ##n",
      "n ##ice",
      "##l ##f",
      "##or ##m",
      "char ##act",
      "pr ##ice",
      "##i ##al",
      "##q ##u",
      "##me ##nd",
      "mo ##st",
      "n ##ow",
      "S ##t",
      "I ##n",
      "g ##ot",
      "qu ##ality",
      "d ##own",
      "S ##h",
      "##ve ##l",
      "h ##im",
      "p ##ut",
      "G ##reat",
      "Y ##ou",
      "##p ##s",
      "o ##ld",
      "##om ##et",
      "##om ##mend",
      "f ##eel",
      "##en ##ce",
      "p ##ur",
      "C ##h",
      "perf ##ect",
      "s ##l",
      "##vie ##w",
      "f ##ind",
      "b ##est",
      "g ##u",
      "a ##w",
      "l ##ot",
      "##o ##ld",
      "ag ##ain",
      "##op ##le",
      "##w ##n",
      "##ul ##t",
      "rec ##ommend",
      "##c ##c",
      "ha ##pp",
      "B ##ut",
      "##at ##ed",
      "us ##ed",
      "##o ##b",
      "li ##ght",
      "H ##e",
      "g ##r",
      "##u ##ally",
      "##b ##um",
      "sm ##all",
      "##or ##d",
      "k ##eep",
      "it ##s",
      "##f ##t",
      "##as ##ed",
      "f ##il",
      "t ##ra",
      "a ##pp",
      "eas ##y",
      "h ##igh",
      "##ar ##s",
      "ha ##nd",
      "t ##e",
      "b ##it",
      "##o ##g",
      "##iz ##e",
      "##an ##g",
      "al ##bum",
      "s ##ay",
      "in ##ter",
      "##x ##t",
      "##th ##ing",
      "pe ##ople",
      "p ##h",
      "##a ##il",
      "s ##omet",
      "f ##un",
      "man ##y",
      "##s ##p",
      "s ##ong",
      "b ##r",
      "##l ##es",
      ") ##.",
      "work ##s",
      "re ##view",
      "##j ##oy",
      "##b ##er",
      "##or ##s",
      "st ##r",
      "##p ##le",
      "thr ##ough",
      "##f ##e",
      "##u ##b",
      "##nd ##er",
      "g ##ame",
      "r ##es",
      "year ##s",
      "r ##ight",
      "##ic ##al",
      "c ##le",
      "diff ##er",
      "##m ##o",
      "did ##n",
      "b ##ought",
      "##w ##e",
      "sh ##ould",
      "ch ##e",
      "b ##o",
      "mo ##vie",
      "##se ##lf",
      "##oun ##t",
      "h ##ard",
      "in ##c",
      "en ##joy",
      "##e ##ver",
      "##f ##ore",
      "s ##ound",
      "O ##n",
      "A ##nd",
      "ne ##ver",
      "S ##o",
      "##ic ##t",
      "##g ##in",
      "! ##!",
      "##p ##r",
      "fe ##w",
      "##at ##ter",
      "##i ##ld",
      "does ##n",
      "pur ##ch",
      "st ##art",
      "t ##ri",
      "ad ##d",
      "##im ##es",
      "##ar ##k",
      "##a ##ir",
      "##es ##e",
      "l ##ast",
      "en ##ough",
      "##in ##ce",
      "be ##ing",
      "go ##ing",
      "Th ##ere",
      "s ##ame",
      "wh ##ere",
      "##ar ##y",
      "W ##e",
      "ar ##ound",
      "A ##m",
      "o ##ur",
      "he ##l",
      "tr ##y",
      "##as ##on",
      "b ##ig",
      "m ##us",
      "m ##ay",
      "A ##l",
      "wh ##ile",
      "th ##ing",
      "c ##ar",
      "be ##fore",
      "##p ##h",
      "##ig ##n",
      "##is ##e",
      "o ##wn",
      "u ##nder",
      "##w ##ays",
      "re ##al",
      "sh ##ow",
      "##g ##et",
      "se ##c",
      "##ak ##ing",
      "th ##ough",
      "##o ##ve",
      "##a ##ve",
      "g ##l",
      "ser ##ies",
      "##u ##g",
      "##it ##ion",
      "##tt ##y",
      "somet ##hing",
      "pro ##ble",
      "##ut ##e",
      "o ##p",
      "##oo ##l",
      "##n ##ing",
      "##os ##s",
      "an ##other",
      "##i ##v",
      "at ##t",
      "##c ##es",
      "f ##o",
      "exp ##ect",
      "c ##ase",
      "li ##fe",
      "de ##f",
      "##f ##ul",
      "##o ##ck",
      "##t ##e",
      "##ation ##s",
      "m ##on",
      "su ##re",
      "##l ##i",
      "charact ##ers",
      "m ##in",
      "or ##der",
      "s ##ize",
      "differ ##ent",
      "##l ##ess",
      "l ##l",
      "##at ##ing",
      "##an ##ge",
      "##av ##or",
      "s ##im",
      "f ##ar",
      "t ##ake",
      "de ##c",
      "N ##ot",
      "##ent ##s",
      "pre ##tty",
      "ex ##t",
      "c ##r",
      "##ow ##er",
      "A ##s",
      "##g ##er",
      "al ##ways",
      "th ##ose",
      "f ##in",
      "##at ##her",
      "d ##ay",
      "with ##out",
      "##ab ##ly",
      "Th ##ese",
      "##i ##a",
      "do ##g",
      "c ##ol",
      "us ##ing",
      "h ##old",
      "h ##ere",
      "##ri ##end",
      "##u ##ck",
      "th ##ings",
      "s ##ur",
      "##f ##ort",
      "m ##akes",
      "mus ##ic",
      "R ##e",
      "##er ##t",
      "s ##ince",
      "b ##oth",
      "a ##ut",
      "ex ##ce",
      "A ##n",
      "d ##r",
      "##u ##al",
      "w ##atch",
      "##i ##x",
      "b ##ad",
      "##at ##h",
      "##is ##s",
      "##ra ##nd",
      "t ##urn",
      "f ##ound",
      "Sh ##e",
      "##a ##pp",
      "a ##cc",
      "##e ##y",
      "##on ##s",
      "th ##ought",
      "- ##-",
      "be ##l",
      "fil ##m",
      "hel ##p",
      "##ast ##ic",
      "V ##ery",
      "sc ##re",
      "##re ##ad",
      "look ##ing",
      "su ##pp",
      "p ##ers",
      "1 ##0",
      "g ##ive",
      "##k ##ed",
      "##ot ##t",
      "##as ##h",
      "g ##i",
      "##i ##ble",
      "cl ##ass",
      "##ll ##ent",
      "W ##or",
      "com ##e",
      "##y ##p",
      "e ##ach",
      "G ##ood",
      "##b ##e",
      "im ##p",
      "r ##un",
      "##it ##ch",
      "##i ##pp",
      "2 ##0",
      "po ##int",
      "l ##ar",
      "l ##ist",
      "re ##l",
      "Th ##at",
      "t ##imes",
      "##op ##e",
      "wor ##th",
      "e ##m",
      "inter ##est",
      "f ##riend",
      "##e ##w",
      "##ic ##s",
      "= ##\"",
      "act ##ually",
      "book ##s",
      "to ##p",
      "##it ##ing",
      "w ##ater",
      "re ##f",
      "##u ##ff",
      "##it ##s",
      "re ##pl",
      "##d ##e",
      "lo ##ved",
      "he ##ad",
      "##in ##ite",
      ") ##,",
      "see ##m",
      "p ##ack",
      "w ##a",
      "##an ##k",
      "##u ##p",
      "##ect ##ion",
      "##e ##ad",
      "##ul ##ar",
      "see ##ms",
      "##i ##an",
      "f ##am",
      "N ##o",
      "read ##ing",
      "dis ##c",
      "is ##s",
      "F ##or",
      "##au ##gh",
      "##i ##o",
      "##et ##s",
      "##s ##ide",
      "##a ##w",
      "##b ##s",
      "##i ##er",
      "##i ##ally",
      "mon ##th",
      "##E ##R",
      "##one ##y",
      "T ##H",
      "##ur ##es",
      "H ##ow",
      "##ou ##se",
      "L ##ove",
      "j ##ob",
      "pers ##on",
      "l ##ess",
      "st ##and",
      "##inite ##ly",
      "##w ##ard",
      "##l ##ud",
      "inst ##all",
      "con ##s",
      "f ##avor",
      "bo ##x",
      "s ##w",
      "##u ##es",
      "##g ##r",
      "get ##ting",
      "l ##ink",
      "p ##er",
      "sec ##ond",
      "pr ##ot",
      "ne ##xt",
      "su ##ch",
      "re ##t",
      "qu ##ick",
      "f ##ine",
      "ph ##one",
      "##i ##b",
      "##a ##ut",
      "so ##l",
      "##az ##on",
      "op ##en",
      "qu ##ite",
      "f ##ull",
      "f ##act",
      "Wh ##at",
      "c ##ame",
      "happ ##y",
      "##al ##s",
      "re ##m",
      "aw ##ay",
      "co ##ver",
      "##t ##s",
      "comp ##le",
      "s ##ide",
      "aut ##h",
      "d ##ri",
      "##b ##ably",
      "sh ##o",
      "1 ##9",
      "co ##ll",
      "k ##ind",
      "##us ##h",
      "wh ##y",
      "##o ##c",
      "##o ##int",
      "w ##ar",
      "##ate ##ly",
      "proble ##m",
      "##we ##en",
      "##y ##s",
      "cle ##an",
      "##ri ##gin",
      "b ##atter",
      "d ##ra",
      "##ic ##ally",
      "w ##ond",
      "re ##ason",
      "v ##ers",
      "##al ##k",
      "##mo ##st",
      "g ##en",
      "##at ##s",
      "e ##ar",
      "k ##id",
      "##en ##se",
      "e ##l",
      "look ##s",
      "c ##am",
      "Wh ##en",
      "sa ##id",
      "inc ##lud",
      "bet ##ween",
      "##on ##t",
      "lo ##ves",
      "m ##oney",
      "is ##n",
      "any ##thing",
      "a ##ble",
      "##- ##-",
      "##m ##m",
      "t ##yp",
      "##if ##e",
      "w ##ee",
      "p ##ie",
      "pl ##ace",
      "su ##b",
      "to ##get",
      "toget ##her",
      "c ##ut",
      "song ##s",
      "##n ##ess",
      "d ##ur",
      "s ##y",
      "col ##or",
      "##c ##ed",
      "y ##et",
      "pro ##bably",
      "e ##v",
      "m ##ight",
      "f ##an",
      "J ##ust",
      "##a ##h",
      "com ##es",
      "t ##ell",
      "##a ##le",
      "b ##ag",
      "##ent ##ly",
      "o ##rigin",
      "c ##ou",
      "##ag ##es",
      "re ##ce",
      "##c ##ri",
      "che ##ap",
      "##w ##h",
      "def ##initely",
      "want ##ed",
      "in ##f",
      "##t ##il",
      "!! ##!",
      "##ow ##s",
      "ha ##ving",
      "sh ##ort",
      "##n ##er",
      "##ct ##ion",
      "A ##ll",
      "b ##re",
      ". ##.",
      "wor ##ld",
      "##ck ##s",
      ": ##/",
      "e ##d",
      "s ##ing",
      "re ##g",
      "every ##thing",
      "al ##most",
      "it ##em",
      "##ter ##s",
      "l ##et",
      "B ##l",
      "##n ##g",
      "w ##on",
      "##ment ##s",
      "m ##ust",
      "i ##nd",
      "h ##tt",
      "e ##ff",
      "st ##or",
      "B ##e",
      "##erf ##ul",
      "d ##one",
      ":/ ##/",
      "d ##et",
      "m ##et",
      "##r ##ed",
      "on ##ce",
      "com ##fort",
      "c ##are",
      "##i ##ence",
      "h ##ome",
      "charact ##er",
      "need ##ed",
      "##t ##en",
      "c ##ra",
      "bel ##ie",
      "##am ##es",
      "we ##ar",
      "eas ##ily",
      "favor ##ite",
      "s ##n",
      "st ##ars",
      "##at ##es",
      "##ot ##s",
      "##at ##ive",
      "p ##le",
      "On ##e",
      "r ##ed",
      "##v ##ice",
      "##st ##and",
      "auth ##or",
      "se ##ver",
      "##b ##o",
      "str ##ong",
      "s ##k",
      "##ent ##ion",
      "th ##ree",
      "Am ##azon",
      "sp ##e",
      "p ##ower",
      "##d ##ay",
      "##is ##ed",
      "##aut ##if",
      "##n ##y",
      "su ##per",
      "E ##x",
      "##e ##p",
      "##i ##ed",
      "##m ##an",
      "##pt ##ion",
      "##v ##ious",
      "purch ##ased",
      "exce ##llent",
      "st ##uff",
      "##ec ##ially",
      "ch ##ild",
      "##i ##et",
      "c ##all",
      "dis ##app",
      "##o ##st",
      "##id ##er",
      "h ##our",
      "fam ##ily",
      "##az ##ing",
      "##ith ##er",
      "##l ##ain",
      "##um ##p",
      "re ##le",
      "p ##ict",
      "b ##and",
      "##es ##ome",
      "##id ##es",
      "he ##av",
      "##sp ##ecially",
      "##ar ##p",
      "sever ##al",
      "un ##til",
      "lar ##ge",
      "des ##cri",
      "h ##um",
      "Ch ##r",
      "f ##ast",
      "purch ##ase",
      "exp ##er",
      "comple ##te",
      "pl ##astic",
      "##l ##ed",
      "a ##c",
      "get ##s",
      "rec ##ord",
      "b ##ott",
      "f ##ree",
      "##as ##ter",
      "##r ##uct",
      "fe ##at",
      "oth ##ers",
      "m ##ain",
      "cle ##ar",
      "t ##er",
      "cou ##ple",
      "des ##ign",
      "##i ##ke",
      "repl ##ace",
      "expect ##ed",
      "C ##D",
      "list ##en",
      "d ##ays",
      "who ##le",
      "le ##ast",
      "c ##or",
      "##ver ##y",
      "re ##p",
      "##g ##g",
      "con ##n",
      "perfect ##ly",
      "B ##r",
      "le ##ft",
      "tri ##ed",
      "##d ##y",
      "not ##hing",
      "in ##v",
      "p ##ick",
      "try ##ing",
      "c ##ard",
      "st ##y",
      "work ##ed",
      "##h ##ip",
      "##ll ##ow",
      "##ver ##s",
      "v ##ide",
      "enjoy ##ed",
      "##l ##ic",
      "i ##de",
      "st ##ra",
      "too ##k",
      "How ##ever",
      "##read ##y",
      "##ri ##ght",
      "rece ##i",
      "n ##orm",
      "c ##reat",
      "w ##ish",
      "##itt ##en",
      "##ir ##l",
      "origin ##al",
      "was ##n",
      "disapp ##oint",
      "##I ##N",
      "Wor ##ks",
      "de ##al",
      "e ##specially",
      "c ##ap",
      "##ull ##y",
      "##id ##ed",
      "##al ##f",
      "sp ##ec",
      "f ##ood",
      "al ##ready",
      "A ##fter",
      "sc ##en",
      "d ##ire",
      ". ##\"",
      "any ##one",
      "##augh ##ter",
      "##il ##ity",
      "F ##r",
      "##it ##ed",
      "##od ##y",
      "month ##s",
      "U ##n",
      "D ##o",
      "ab ##s",
      "##le ##ct",
      "ret ##urn",
      "vers ##ion",
      "##a ##x",
      "be ##autif",
      "perf ##orm",
      "en ##t",
      "scre ##en",
      "w ##om",
      "ro ##om",
      "p ##ast",
      "##ir ##d",
      "l ##ine",
      "D ##e",
      "m ##aking",
      "happ ##en",
      "on ##es",
      "comfort ##able",
      "t ##ast",
      "am ##azing",
      "##A ##T",
      "g ##ra",
      "com ##m",
      "ex ##act",
      "##ed ##i",
      "##ens ##ive",
      "##if ##t",
      "el ##se",
      "Al ##so",
      "... ##.",
      "v ##al",
      "l ##ear",
      "##en ##g",
      "##at ##t",
      "pro ##v",
      "##o ##ice",
      "m ##iss",
      "interest ##ing",
      "r ##est",
      "b ##rand",
      "##j ##ect",
      "review ##s",
      "h ##ook",
      "##th ##er",
      "li ##ked",
      "some ##one",
      "kid ##s",
      "h ##ouse",
      "##O ##T",
      "n ##ight",
      "\" ##,",
      "##t ##on",
      "##th ##ough",
      "w ##ent",
      "##c ##ess",
      "##i ##k",
      "prot ##ect",
      "c ##ur",
      "Chr ##ist",
      "##iz ##ed",
      "##l ##ing",
      "\" ##.",
      "mo ##d",
      "s ##on",
      "f ##all",
      "C ##an",
      "be ##gin",
      "##in ##s",
      "wr ##itten",
      "##ut ##es",
      "st ##ick",
      "ar ##t",
      "tr ##ue",
      "##ap ##e",
      "con ##f",
      "m ##ind",
      "c ##our",
      "P ##r",
      "con ##c",
      "h ##ot",
      "S ##p",
      "##E ##D",
      "st ##ar",
      "e ##t",
      "no ##vel",
      "sur ##pr",
      "W ##ell",
      "##el ##t",
      "p ##ain",
      "p ##ar",
      "wa ##it",
      "TH ##E",
      "se ##en",
      "h ##alf",
      "##os ##ed",
      "order ##ed",
      "t ##akes",
      "li ##ve",
      "##on ##es",
      "re ##mo",
      "c ##ool",
      "##ou ##ch",
      "heav ##y",
      "##ol ##ute",
      "b ##ro",
      "##r ##ic",
      "e ##ither",
      "##c ##y",
      "##t ##ain",
      "b ##as",
      "work ##ing",
      "batter ##y",
      "##f ##er",
      "U ##S",
      "##on ##est",
      "so ##ft",
      "##d ##d",
      "co ##st",
      "##* ##*",
      "as ##s",
      "do ##ing",
      "bre ##ak",
      "h ##ope",
      "a ##v",
      "to ##ol",
      "p ##ull",
      "##ir ##ed",
      "under ##stand",
      "##er ##ic",
      "##er ##a",
      "##ert ##ain",
      "##pp ##ed",
      "##am ##p",
      "##p ##ect",
      "o ##b",
      "ext ##ra",
      "high ##ly",
      "wr ##ong",
      "le ##vel",
      "N ##ow",
      "fit ##s",
      "pr ##es",
      "##st ##em",
      "##m ##ber",
      "##an ##y",
      "##it ##er",
      "he ##art",
      "play ##ing",
      "p ##air",
      "D ##V",
      "s ##ch",
      "et ##c",
      "friend ##s",
      "fin ##ish",
      "for ##m",
      "##or ##n",
      "o ##k",
      "cont ##r",
      "f ##ig",
      "##pr ##ess",
      "n ##um",
      "min ##utes",
      "##ater ##ial",
      "start ##ed",
      "p ##op",
      "##re ##am",
      "##E ##S",
      "me ##an",
      "P ##l",
      "vide ##o",
      "tr ##ans",
      "iss ##ues",
      "se ##x",
      "al ##ong",
      "proble ##ms",
      "go ##es",
      "po ##st",
      "##re ##t",
      "fo ##llow",
      "##ir ##t",
      "p ##ort",
      "l ##ow",
      "W ##ith",
      "r ##ather",
      "J ##o",
      "1 ##2",
      "##e ##x",
      "mo ##ve",
      "ch ##ange",
      "##r ##ess",
      "norm ##al",
      "##l ##ine",
      "m ##om",
      "##n ##ed",
      "bl ##ack",
      "inst ##ead",
      "un ##it",
      "m ##aterial",
      "recei ##ved",
      "C ##l",
      "long ##er",
      "belie ##ve",
      "ag ##o",
      "##l ##ight",
      "##w ##ay",
      "aw ##esome",
      "sy ##stem",
      "k ##ey",
      "quick ##ly",
      "##g ##ed",
      "sty ##le",
      "need ##s",
      "beautif ##ul",
      "in ##s",
      "could ##n",
      "##ot ##e",
      "wor ##d",
      "##as ##y",
      "wond ##erful",
      "r ##om",
      "DV ##D",
      "##ur ##ed",
      "##O ##N",
      "supp ##ort",
      "g ##irl",
      "c ##ertain",
      "cour ##se",
      "wr ##iting",
      "##an ##e",
      "exact ##ly",
      "dire ##ct",
      "T ##o",
      "##r ##en",
      "he ##ar",
      "de ##p",
      "c ##at",
      "typ ##e",
      "2 ##00",
      "hour ##s",
      "##L ##L",
      "##id ##d",
      "cons ##ider",
      "##ap ##s",
      "cont ##in",
      "qu ##est",
      "dur ##ing",
      "##ic ##es",
      "s ##it",
      "tra ##ck",
      "g ##t",
      "h ##onest",
      "##R ##E",
      "cl ##ose",
      "ro ##ck",
      "conn ##ect",
      "h ##ist",
      "m ##ess",
      "##q ##ue",
      "d ##aughter",
      "##in ##es",
      "abs ##olute",
      "in ##side",
      "s ##we",
      "htt ##ps",
      "##b ##ed",
      "##c ##i",
      "buy ##ing",
      "##ac ##ed",
      "k ##ill",
      "p ##ol",
      "T ##r",
      "v ##ar",
      "m ##ag",
      "##ist ##s",
      "g ##ames",
      "##if ##ic",
      "m ##ix",
      "N ##ice",
      "##ar ##ed",
      "how ##ever",
      "ch ##ang",
      "L ##e",
      "eff ##ect",
      "ne ##ar",
      "cam ##era",
      "p ##ass",
      "sa ##w",
      "my ##self",
      "##il ##ar",
      "h ##u",
      "st ##ay",
      "P ##ro",
      "con ##st",
      "f ##elt",
      "O ##ver",
      "sm ##o",
      "p ##oss",
      "##ic ##ult",
      "pl ##ot",
      "##ipp ##ing",
      "##ie ##w",
      "may ##be",
      "t ##ight",
      "ex ##c",
      "gen ##er",
      "b ##all",
      "W ##ill",
      "comp ##lain",
      "##r ##on",
      "lo ##c",
      "every ##one",
      "bu ##ild",
      "st ##ore",
      "p ##ay",
      "pie ##ce",
      "D ##on",
      "we ##ight",
      "##il ##t",
      "ent ##ire",
      "A ##t",
      "diff ##icult",
      "le ##ad",
      "b ##ra",
      "f ##air",
      "##re ##me",
      "##ur ##dy",
      "20 ##1",
      "A ##r",
      "Am ##eric",
      "##ter ##n",
      "1 ##5",
      "##b ##and",
      "##un ##ch",
      "m ##ar",
      "a ##ir",
      "iss ##ue",
      "would ##n",
      "gu ##ess",
      "b ##ul",
      "g ##ift",
      "##n ##a",
      "of ##ten",
      "1 ##00",
      "##ar ##r",
      "d ##ist",
      "v ##iew",
      "ide ##a",
      "ha ##ven",
      "##g ##an",
      "c ##ount",
      "act ##ion",
      "##k ##y",
      "re ##qu",
      "sim ##ple",
      "f ##ill",
      "##ce ##pt",
      "##an ##ks",
      "you ##ng",
      "##eng ##th",
      "C ##om",
      "##s ##s",
      "g ##re",
      "fr ##ont",
      "S ##ome",
      "##in ##ed",
      "b ##right",
      "l ##ater",
      "d ##ark",
      "contr ##ol",
      "me ##m",
      "##el ##s",
      "ar ##ri",
      "e ##y",
      "##j ##ust",
      "g ##ave",
      "##ip ##s",
      "##ion ##al",
      "to ##y",
      "##p ##ly",
      "pl ##an",
      "b ##oy",
      "app ##ear",
      "##v ##ent",
      "sw ##itch",
      "to ##t",
      "##ap ##er",
      "##i ##or",
      "st ##op",
      "wee ##k",
      "##ant ##s",
      "##st ##er",
      "h ##or",
      "complete ##ly",
      "n ##ame",
      "se ##ll",
      "it ##self",
      "##vel ##op",
      "m ##ark",
      "##u ##c",
      "##d ##it",
      "##o ##ll",
      "##at ##a",
      "##ant ##ly",
      "##in ##ess",
      "sing ##le",
      "pict ##ure",
      "exper ##ience",
      "det ##ail",
      "##N ##D",
      "en ##ter",
      "be ##h",
      "3 ##0",
      "s ##ign",
      "f ##ant",
      "##wh ##ere",
      "f ##our",
      "M ##ar",
      "t ##reat",
      "##n ##ot",
      "##! ##!",
      "##m ##as",
      "sol ##id",
      "##e ##pt",
      "de ##li",
      "h ##it",
      "scre ##w",
      "im ##m",
      "st ##urdy",
      "val ##ue",
      "L ##O",
      "##is ##m",
      "##v ##ies",
      "##oo ##se",
      "st ##e",
      "met ##al",
      "P ##erf",
      "##or ##k",
      "part ##ic",
      "c ##able",
      "w ##in",
      "##i ##ent",
      "dog ##s",
      "Ex ##ce",
      "pl ##ug",
      "he ##ard",
      "g ##rand",
      "gu ##y",
      "absolute ##ly",
      "play ##ed",
      "##it ##ies",
      "##es ##h",
      "t ##ouch",
      "v ##is",
      "a ##p",
      "wh ##ite",
      "stor ##ies",
      "w ##all",
      "b ##ar",
      "che ##ck",
      "spe ##ak",
      "##us ##band",
      "t ##est",
      "Wh ##ile",
      "##me ##mber",
      "disappoint ##ed",
      "##w ##w",
      "##k ##es",
      "st ##ud",
      "bott ##om",
      "imp ##ort",
      "sl ##ow",
      "pr ##ess",
      "E ##ven",
      "##ic ##ed",
      "##it ##ive",
      "p ##os",
      "O ##r",
      "##ver ##t",
      "c ##ook",
      "##ou ##ble",
      "##i ##en",
      "sound ##s",
      "mo ##vies",
      "##o ##or",
      "s ##le",
      "de ##velop",
      "c ##ute",
      "##f ##ully",
      "ad ##just",
      "##u ##me",
      "##w ##are",
      "##a ##id",
      "##us ##s",
      "e ##p",
      "sch ##ool",
      "pre ##vious",
      "##ol ##og",
      "* ##*",
      "##ra ##ct",
      "##u ##ly",
      "c ##op",
      "I ##s",
      "m ##atter",
      "gi ##ven",
      "] ##(",
      "E ##very",
      "sim ##ply",
      "for ##ward",
      "m ##ount",
      "d ##am",
      "##ar ##m",
      "h ##usband",
      "s ##at",
      "##as ##es",
      "##y ##ing",
      "##ff ##ee",
      "##O ##R",
      "##o ##ver",
      "T ##V",
      "##at ##ure",
      "hand ##s",
      "sl ##ight",
      "##r ##ay",
      "feel ##s",
      "##V ##E",
      "##O ##U",
      "fin ##ally",
      "Perf ##ect",
      "exp ##ensive",
      "se ##ason",
      "##g ##ing",
      "part ##s",
      "##E ##A",
      "h ##op",
      "add ##ition",
      "im ##press",
      "w ##ife",
      "small ##er",
      "t ##alk",
      "so ##on",
      "##o ##le",
      "am ##ount",
      "hand ##le",
      "gu ##it",
      "tast ##e",
      "gl ##ad",
      "##bo ##ard",
      "Exce ##llent",
      ", ##\"",
      "g ##ri",
      "##I ##S",
      "##k ##ing",
      "ext ##reme",
      "##a ##j",
      "ph ##ot",
      "S ##c",
      "rel ##ations",
      "##ow ##ing",
      "##s ##on",
      "H ##igh",
      "M ##e",
      "##er ##ing",
      "##in ##y",
      "car ##ry",
      "##itt ##ing",
      "w ##ind",
      "show ##s",
      "again ##st",
      "##l ##ish",
      "##e ##f",
      "b ##ed",
      "le ##g",
      "##l ##o",
      "##al ##th",
      "m ##atch",
      "lo ##st",
      "##an ##ces",
      "d ##ata",
      "us ##ually",
      "##ac ##es",
      "##l ##er",
      ". ##)",
      "d ##ry",
      "##ck ##et",
      "Q ##u",
      "somet ##imes",
      "class ##ic",
      "gi ##ves",
      "N ##OT",
      "w ##ww",
      "##-- ##--",
      "pie ##ces",
      "m ##ention",
      "swe ##et",
      "op ##in",
      "com ##ing",
      "relations ##hip",
      "##av ##ing",
      "n ##on",
      "M ##ay",
      "##z ##y",
      "5 ##0",
      "att ##ach",
      "co ##nd",
      "dec ##ided",
      "coll ##ection",
      "##id ##ent",
      "s ##ays",
      "co ##ffee",
      "t ##it",
      "##g ##es",
      "s ##ense",
      "product ##s",
      "al ##though",
      "##ut ##ion",
      "hu ##ge",
      "Over ##all",
      "##ir ##es",
      "m ##ult",
      "b ##us",
      "c ##ent",
      "ro ##ll",
      "th ##ick",
      "re ##member",
      "##l ##and",
      "t ##em",
      "d ##ue",
      "le ##ave",
      "##on ##y",
      "ar ##en",
      "p ##en",
      "v ##oice",
      "bec ##ome",
      "Th ##en",
      "sho ##es",
      "f ##ace",
      "S ##u",
      "can ##not",
      "Christ ##mas",
      "##r ##or",
      "k ##ept",
      "h ##ol",
      "##ou ##d",
      "It ##s",
      "sim ##ilar",
      "##at ##or",
      "partic ##ular",
      "keep ##s",
      "m ##en",
      "comp ##ut",
      "p ##ad",
      "##IN ##G",
      "eas ##ier",
      "N ##e",
      "reg ##ular",
      "##c ##r",
      "war ##m",
      "te ##ch",
      "sh ##arp",
      "a ##ud",
      "sp ##ace",
      "col ##ors",
      "f ##ut",
      "f ##ans",
      "lar ##ger",
      "##n ##e",
      "spec ##ial",
      "##ri ##ed",
      "em ##ot",
      "##A ##N",
      "##ou ##p",
      "wom ##an",
      "do ##or",
      "end ##ing",
      "fe ##et",
      "run ##ning",
      "S ##e",
      "dri ##ve",
      "cont ##ain",
      "d ##eep",
      "##ag ##ed",
      "p ##aper",
      "##g ##le",
      "\" ##>",
      "##pl ##ay",
      "res ##ult",
      "pro ##f",
      "##ust ##om",
      "light ##s",
      "E ##asy",
      "b ##ased",
      "##k ##en",
      "##y ##r",
      "to ##day",
      "##is ##f",
      "fun ##ny",
      "##i ##ves",
      "##s ##c",
      "p ##ow",
      "num ##ber",
      "enter ##tain",
      "##t ##ed",
      "##h ##n",
      "un ##i",
      "her ##o",
      "##m ##a",
      "s ##me",
      "##av ##es",
      "im ##ag",
      "tr ##uly",
      "rom ##ance",
      "en ##g",
      "##p ##ar",
      "m ##ed",
      "child ##ren",
      "rele ##ase",
      "f ##ail",
      "Th ##anks",
      "H ##er",
      "##am ##s",
      "inf ##orm",
      "##it ##es",
      "gl ##ass",
      "s ##ort",
      "want ##s",
      "##re ##ct",
      "sp ##end",
      "out ##side",
      "Y ##es",
      "t ##al",
      "smo ##oth",
      "m ##ot",
      "##er ##ed",
      "##ie ##ld",
      "n ##b",
      "Th ##ank",
      "##n ##ey",
      "am ##p",
      "play ##er",
      "f ##ight",
      "fo ##ot",
      "L ##ook",
      "w ##alk",
      "a ##ff",
      "pr ##om",
      "th ##in",
      "wee ##ks",
      "pre ##fer",
      "av ##ail",
      "stand ##ard",
      "lear ##n",
      "##et ##h",
      "##c ##o",
      "p ##u",
      "##un ##k",
      "fl ##avor",
      "an ##n",
      "nb ##sp",
      "watch ##ing",
      "guit ##ar",
      "p ##ot",
      "##un ##ately",
      "ex ##am",
      "l ##ens",
      "inst ##ruct",
      "t ##aking",
      "m ##ach",
      "... ##..",
      "e ##lect",
      "##ent ##y",
      "##ist ##ic",
      "includ ##ed",
      "with ##in",
      "v ##ol",
      "arri ##ved",
      "fut ##ure",
      "##pp ##ing",
      "m ##ine",
      "##us ##ed",
      "##um ##b",
      "extreme ##ly",
      "e ##qu",
      "r ##ub",
      ": ##)",
      "recommend ##ed",
      "f ##ra",
      "replace ##ment",
      "are ##a",
      "me ##ans",
      "seem ##ed",
      "ap ##art",
      "O ##f",
      "comp ##any",
      "char ##ge",
      "opin ##ion",
      "scen ##es",
      "descri ##bed",
      "##at ##ur",
      "tra ##cks",
      "batter ##ies",
      "e ##le",
      "sme ##ll",
      "e ##r",
      "ser ##ious",
      "hist ##ory",
      "v ##oc",
      "##se ##l",
      "ear ##ly",
      "##is ##ter",
      "m ##il",
      "sh ##ipping",
      "differ ##ence",
      "##n ##et",
      "##s ##y",
      "L ##ike",
      "##ub ##e",
      "htt ##p",
      "ter ##ri",
      "##I ##T",
      "se ##lf",
      "Jo ##hn",
      "##iet ##y",
      "in ##ch",
      "h ##ang",
      "po ##or",
      "o ##cc",
      "1 ##1",
      "##w ##ise",
      "de ##vice",
      "O ##ther",
      "p ##an",
      "l ##ack",
      "to ##ld",
      "##T ##F",
      "b ##or",
      "avail ##able",
      "##at ##ic",
      "##ag ##ing",
      "import ##ant",
      "##er ##g",
      "kn ##ife",
      "##m ##b",
      "##ou ##b",
      "##O ##O",
      "su ##gg",
      "sugg ##est",
      "##b ##y",
      "pro ##per",
      "sc ##r",
      "dra ##w",
      "##g ##ra",
      "c ##ats",
      "W ##ould",
      "kn ##ew",
      "over ##all",
      "imp ##ro",
      "##in ##ing",
      "com ##b",
      "##b ##r",
      "comput ##er",
      "##ak ##en",
      "i ##d",
      "##as ##ing",
      "##ac ##ing",
      "##m ##it",
      "your ##self",
      "su ##sp",
      "c ##ast",
      "pres ##ent",
      "do ##ll",
      "ad ##vert",
      "perform ##ance",
      "s ##ens",
      "bu ##ilt",
      "N ##ew",
      "##an ##n",
      "but ##ton",
      "w ##ire",
      "f ##ive",
      "ple ##ased",
      "c ##ustom",
      "##r ##oss",
      "##is ##ing",
      "old ##er",
      "##aj ##or",
      "fant ##astic",
      "c ##ab",
      "look ##ed",
      "##um ##ent",
      "fig ##ure",
      "##_ ##t",
      "lot ##s",
      "F ##irst",
      "think ##ing",
      "##A ##S",
      "##l ##t",
      "feat ##ure",
      "##ipp ##ed",
      "l ##ab",
      "hum ##an",
      "album ##s",
      "beh ##ind",
      "all ##ow",
      "i ##e",
      "s ##ent",
      "##_ ##d",
      "##in ##a",
      "##al ##t",
      "was ##h",
      "b ##ase",
      "be ##at",
      "c ##ord",
      "pl ##us",
      "d ##i",
      "##ab ##y",
      "call ##ed",
      "i ##P",
      "e ##at",
      "An ##y",
      "ser ##vice",
      "o ##pp",
      "##is ##od",
      "##ap ##t",
      "##in ##ation",
      "sat ##isf",
      "dec ##ent",
      "de ##v",
      "begin ##ning",
      "##m ##y",
      "##it ##al",
      "##idd ##le",
      "##is ##on",
      "f ##re",
      "##ust ##r",
      "r ##ad",
      "##en ##ch",
      "t ##able",
      "##ap ##ter",
      "supp ##osed",
      "G ##od",
      "gu ##ys",
      "feat ##ures",
      "cl ##os",
      "fo ##c",
      "##un ##g",
      "f ##ix",
      "link ##ed",
      "##A ##R",
      "lo ##ck",
      "I ##m",
      "##et ##her",
      "b ##ody",
      "f ##a",
      "l ##ength",
      "A ##d",
      "gi ##ving",
      "s ##ad",
      "p ##age",
      "y ##es",
      "##ad ##es",
      "E ##n",
      "br ##ing",
      "slight ##ly",
      "w ##ood",
      "d ##p",
      "C ##on",
      "cur ##r",
      "acc ##ess",
      "us ##es",
      "##id ##ing",
      "wom ##en",
      "tra ##vel",
      "dur ##able",
      "##ro ##om",
      "##ar ##ch",
      "cor ##rect",
      "##er ##m",
      "certain ##ly",
      "##h ##aps",
      "say ##ing",
      "res ##p",
      "c ##m",
      "##z ##z",
      "m ##other",
      "m ##ajor",
      "H ##is",
      "I ##T",
      "spe ##ed",
      "ch ##ance",
      "1 ##8",
      "##oo ##f",
      "C ##ar",
      "##_ ##r",
      "turn ##ed",
      "read ##er",
      "U ##TF",
      "##fort ##unately",
      "##t ##o",
      "##_ ##cr",
      "##re ##w",
      "##m ##ing",
      "2 ##5",
      "UTF ##8",
      "add ##ed",
      "##u ##nd",
      "##c ##le",
      "##ro ##ll",
      "word ##s",
      "##le ##x",
      "fil ##ter",
      "Americ ##an",
      "m ##or",
      "includ ##ing",
      "mod ##el",
      "he ##alth",
      "##d ##ate",
      "person ##al",
      "P ##h",
      "hold ##s",
      "stra ##ight",
      "im ##ages",
      "##re ##f",
      "tot ##ally",
      "r ##ange",
      "##cc ##ess",
      "##end ##ed",
      "t ##un",
      "F ##l",
      "s ##qu",
      "sa ##ve",
      "ob ##vious",
      "##m ##er",
      "wr ##ite",
      "##ill ##s",
      "gr ##oup",
      "tech ##n",
      "##ro ##d",
      "cm ##_cr",
      "##sel ##ves",
      "l ##iter",
      "d ##ig",
      "cm_cr ##_",
      "O ##h",
      "g ##un",
      "o ##pt",
      "pr ##int",
      "a ##ge",
      "##e ##ah",
      "##ib ##ly",
      "##a ##im",
      "L ##o",
      "l ##augh",
      "an ##im",
      "pur ##p",
      "##v ##w",
      "ev ##ent",
      "##E ##N",
      "p ##ush",
      "##ra ##ph",
      "ep ##isod",
      "happen ##ed",
      "h ##ref",
      "feel ##ing",
      "##arp ##_d",
      "cm_cr_ ##arp_d",
      "##_r ##vw",
      "him ##self",
      "=\" ##/",
      "##_t ##xt",
      "cm_cr_arp_d ##_rvw",
      "cm_cr_arp_d_rvw ##_txt",
      "b ##le",
      "B ##ought",
      "poss ##ible",
      "sit ##u",
      "##er ##n",
      "##ur ##t",
      "1 ##6",
      "dr ##op",
      "##li ##ke",
      "fl ##ash",
      "nice ##ly",
      "exce ##pt",
      "tit ##le",
      "Do ##es",
      "bl ##ue",
      "o ##il",
      "##is ##ion",
      "item ##s",
      "mo ##der",
      "fun ##ction",
      "##b ##ers",
      "install ##ed",
      "##r ##ing",
      "##p ##ut",
      "li ##kes",
      "##s ##w",
      "te ##am",
      "te ##xt",
      "end ##ed",
      "imm ##edi",
      "##re ##ci",
      "t ##end",
      "##or ##ies",
      "May ##be",
      "f ##ather",
      "turn ##s",
      "exp ##l",
      "pro ##cess",
      "##w ##ork",
      "set ##ting",
      "##c ##om",
      "dr ##ink",
      "remo ##ve",
      "p ##ub",
      "A ##ND",
      "bec ##om",
      "c ##atch",
      "instruct ##ions",
      "surpr ##ised",
      "loc ##al",
      "inc ##red",
      "##ut ##h",
      "inform ##ation",
      "de ##ath",
      "su ##mm",
      "scen ##e",
      "li ##ves",
      "4 ##0",
      "de ##ad",
      "w ##ide",
      "c ##a",
      "c ##up",
      "com ##ment",
      "U ##s",
      "##u ##se",
      "cop ##y",
      "sho ##ot",
      "##pp ##y",
      "st ##ri",
      "B ##est",
      "On ##ly",
      "count ##ry",
      "fl ##at",
      "##ur ##ing",
      "not ##e",
      "hel ##ps",
      "al ##one",
      "h ##ate",
      "ann ##oy",
      "mach ##ine",
      "##h ##e",
      "big ##ger",
      "US ##B",
      "so ##c",
      "su ##ccess",
      "##ang ##er",
      "##le ##y",
      "app ##reci",
      "##I ##C",
      "att ##ention",
      "pr ##act",
      "ad ##v",
      "l ##ay",
      "D ##is",
      "fe ##ed",
      "B ##00",
      "fair ##ly",
      "know ##s",
      "ac ##ross",
      "quest ##ion",
      "scr ##atch",
      "advert ##ised",
      "mult ##ip",
      "bus ##iness",
      "pro ##gra",
      "##o ##on",
      "ab ##ove",
      "Wh ##y",
      "eff ##ort",
      "##ab ##ility",
      "fr ##esh",
      "not ##ice",
      "i ##ll",
      "##l ##s",
      "tri ##p",
      "##le ##t",
      "b ##urn",
      "##c ##on",
      "##o ##x",
      "c ##d",
      "put ##ting",
      "f ##ire",
      "th ##ird",
      "Re ##ally",
      "g ##ar",
      "pro ##ject",
      "##wh ##at",
      "ha ##ir",
      "M ##an",
      "m ##aster",
      "##as ##ure",
      "##O ##M",
      "C ##r",
      "j ##o",
      "##z ##e",
      "##op ##h",
      "##c ##ing",
      "red ##dit",
      "bl ##ock",
      "comp ##ared",
      "E ##ng",
      "pl ##enty",
      "##ain ##s",
      "Al ##though",
      "##y ##n",
      "St ##ill",
      "##ward ##s",
      "l ##yr",
      "co ##ld",
      "te ##a",
      "happ ##ens",
      "ed ##ge",
      "p ##ages",
      "##ict ##ion",
      "##i ##od",
      "n ##arr",
      "##f ##ace",
      "m ##iddle",
      "##ou ##th",
      "St ##e",
      "see ##ing",
      "g ##one",
      "f ##ur",
      "cam ##p",
      "##iv ##id",
      "T ##w",
      "##er ##c",
      "so ##ld",
      "an ##t",
      "o ##per",
      "inv ##ol",
      "t ##aken",
      "en ##c",
      "pack ##age",
      "d ##a",
      "gr ##ound",
      "D ##id",
      "ch ##oice",
      "l ##oose",
      "kn ##own",
      "pr ##in",
      "##it ##ter",
      "card ##s",
      "c ##al",
      "H ##D",
      "pict ##ures",
      "##ear ##s",
      "m ##ic",
      "un ##less",
      "or ##gan",
      "f ##uck",
      "##g ##n",
      "##r ##ant",
      "bro ##ke",
      "me ##et",
      "High ##ly",
      "d ##est",
      "##u ##ced",
      "pl ##ays",
      "rele ##ased",
      "exam ##ple",
      "them ##selves",
      "##ud ##e",
      "##are ##ly",
      "an ##sw",
      "##d ##ing",
      "P ##e",
      "##p ##ite",
      "re ##ach",
      "##ate ##ver",
      "ad ##ult",
      "On ##ce",
      "sa ##fe",
      "##oo ##p",
      "M ##ost",
      "##pp ##er",
      "M ##r",
      "f ##ing",
      "##ent ##ial",
      "bo ##ard",
      "Bl ##ack",
      "inv ##est",
      "##b ##ack",
      "##u ##ed",
      "##em ##pt",
      "H ##ave",
      "se ##nd",
      "In ##st",
      "cheap ##er",
      "most ##ly",
      "he ##ld",
      "he ##at",
      "1 ##3",
      "##en ##ces",
      "1 ##4",
      "through ##out",
      "S ##ee",
      "##ad ##ed",
      "##0 ##s",
      "d ##oub",
      "f ##ab",
      "##E ##E",
      "##ad ##ing",
      "bro ##ken",
      "##itch ##en",
      "acc ##ur",
      "##U ##T",
      "##iz ##es",
      "An ##other",
      "S ##er",
      "##et ##t",
      "v ##i",
      "immedi ##ately",
      "s ##il",
      "mo ##ving",
      "fl ##oor",
      "< ##/",
      "li ##ving",
      "like ##ly",
      "ey ##es",
      "U ##p",
      "Ch ##ar",
      "m ##is",
      "! ##)",
      "##_ ##_",
      "b ##ow",
      "po ##cket",
      "set ##s",
      "##ear ##ch",
      "per ##iod",
      "const ##ruct",
      "some ##what",
      "exp ##lain",
      "Su ##per",
      "J ##ack",
      "start ##s",
      "##ad ##s",
      "I ##S",
      "se ##par",
      "##oun ##ter",
      "se ##arch",
      "##gr ##ess",
      "de ##m",
      "foc ##us",
      "##ri ##es",
      "W ##ar",
      "W ##as",
      "fl ##aw",
      "c ##ir",
      "ne ##g",
      "high ##er",
      "w ##ays",
      "l ##uck",
      "##S ##T",
      "##m ##ore",
      "gri ##p",
      "fil ##ms",
      "mark ##et",
      "P ##re",
      "k ##it",
      "rub ##ber",
      "##O ##W",
      "but ##t",
      "##i ##ans",
      "##i ##um",
      "t ##re",
      "##ak ##er",
      "##b ##ody",
      "R ##ob",
      "end ##s",
      "##o ##id",
      "##l ##us",
      "interest ##ed",
      "bl ##ade",
      "uni ##que",
      "my ##st",
      "##en ##n",
      "G ##o",
      "mess ##age",
      "use ##ful",
      "##or ##ry",
      "open ##ing",
      "l ##ate",
      "d ##ro",
      "l ##oud",
      "ok ##ay",
      "st ##o",
      "st ##ate",
      "cap ##t",
      "S ##m",
      "b ##aby",
      "ag ##ree",
      "act ##ual",
      "sh ##ot",
      "l ##ower",
      "read ##y",
      "ne ##cess",
      "wh ##eel",
      "c ##ause",
      "##olog ##y",
      "r ##ound",
      "##u ##f",
      "##ens ##ion",
      "miss ##ing",
      "as ##k",
      "##ul ##ous",
      "##u ##ce",
      "app ##ro",
      "##ir ##m",
      "E ##d",
      "R ##ec",
      "##is ##es",
      "che ##w",
      "set ##t",
      "G ##l",
      "b ##ike",
      "part ##y",
      "sle ##ep",
      "##b ##ook",
      "L ##ED",
      "##gr ##ound",
      "n ##ut",
      "contin ##ue",
      "on ##line",
      "act ##ing",
      "B ##u",
      "near ##ly",
      "t ##ape",
      "st ##ock",
      "##ation ##al",
      "Fr ##om",
      "A ##w",
      "b ##al",
      "me ##l",
      "LO ##VE",
      "rad ##io",
      "E ##l",
      "##att ##le",
      "to ##wn",
      "##ER ##Y",
      "##og ##raph",
      "S ##im",
      "p ##aid",
      "rec ##ently",
      "enjoy ##able",
      "De ##f",
      "T ##O",
      "wh ##atever",
      "##et ##er",
      "##il ##i",
      "o ##ption",
      "listen ##ing",
      "##b ##ing",
      "att ##empt",
      "mom ##ent",
      "c ##art",
      "##ent ##ed",
      "br ##other",
      "te ##ach",
      "##ir ##th",
      "s ##ou",
      "##h ##ead",
      "cont ##act",
      "se ##at",
      "O ##N",
      "cra ##zy",
      "v ##ac",
      "ple ##ase",
      "record ##ing",
      "m ##ist",
      "##ver ##age",
      "##en ##cy",
      "com ##ments",
      "was ##te",
      "impress ##ed",
      "##r ##ow",
      "##iz ##ing",
      "keep ##ing",
      "k ##itchen",
      "##ur ##y",
      "f ##em",
      "point ##s",
      "sk ##in",
      "bott ##le",
      "lyr ##ics",
      "as ##se",
      "wear ##ing",
      "purp ##ose",
      "pow ##erful",
      "ch ##all",
      "res ##earch",
      "rem ##ote",
      "talk ##ing",
      "s ##and",
      "##atur ##al",
      "int ##rod",
      "her ##self",
      "S ##ince",
      "chang ##ed",
      "H ##ar",
      "pol ##it",
      "##e ##ed",
      "##g ##o",
      "st ##ep",
      "##au ##ght",
      "n ##et",
      "hum ##or",
      "##5 ##0",
      "##v ##able",
      "su ##n",
      "gre ##en",
      "r ##id",
      "sho ##e",
      "sur ##v",
      "entertain ##ing",
      "T ##e",
      "multip ##le",
      "##u ##it",
      "cr ##it",
      "b ##ass",
      "##ra ##p",
      "comp ##ar",
      "Y ##our",
      "l ##aw",
      "O ##ur",
      "##s ##h",
      "prot ##ection",
      "##y ##l",
      "##ill ##i",
      "F ##in",
      "ac ##cept",
      "rem ##ind",
      "##L ##Y",
      "than ##ks",
      "hold ##ing",
      "tr ##ouble",
      "##or ##ge",
      "myst ##ery",
      "sp ##o",
      "M ##c",
      "gr ##ow",
      "O ##K",
      "sp ##ot",
      "A ##pp",
      "full ##y",
      "not ##iced",
      "p ##ants",
      "su ##ff",
      "th ##read",
      "design ##ed",
      "##g ##ar",
      "##.. ##.",
      "any ##way",
      "char ##ger",
      "ab ##ility",
      "var ##ious",
      "hop ##ing",
      "S ##T",
      "l ##and",
      "am ##azon",
      "##m ##p",
      "sh ##ape",
      "br ##ush",
      "d ##im",
      "ex ##ist",
      "repl ##aced",
      "f ##i",
      "##ch ##ange",
      "prof ##ess",
      "quest ##ions",
      "tool ##s",
      "##as ##k",
      "T ##ra",
      "to ##ys",
      "##us ##ing",
      "play ##ers",
      "##ick ##s",
      "hol ##es",
      "on ##to",
      "##] ##(",
      "##edi ##um",
      "##ri ##g",
      "pos ##ition",
      "##uf ##act",
      "cl ##aim",
      "H ##ere",
      "real ##ize",
      "ad ##vent",
      "c ##ri",
      "than ##k",
      "we ##ak",
      "B ##ar",
      "annoy ##ing",
      "vol ##ume",
      "##apt ##op",
      "6 ##0",
      "prov ##ide",
      "bas ##ically",
      "B ##ec",
      "cond ##ition",
      "G ##re",
      "C ##ol",
      "wh ##ether",
      "2 ##4",
      "##it ##ions",
      "ey ##e",
      "Un ##fortunately",
      "no ##ise",
      "d ##ial",
      "m ##ouse",
      "##E ##T",
      "##om ##b",
      "sec ##ure",
      "tw ##ice",
      "lo ##se",
      "m ##ur",
      "r ##ate",
      "wa ##iting",
      "TH ##IS",
      "m ##id",
      "f ##old",
      "par ##ents",
      "qu ##iet",
      "; ##<",
      "s ##ides",
      "##b ##all",
      "hand ##y",
      "con ##v",
      "sp ##ent",
      "per ##haps",
      "gra ##ph",
      "tw ##ist",
      "ar ##m",
      "##bo ##x",
      "ref ##er",
      "finish ##ed",
      "for ##get",
      "t ##ank",
      "dam ##age",
      "h ##ole",
      "##ur ##ch",
      "##ard ##s",
      "P ##er",
      "##s ##et",
      "bag ##s",
      "mo ##de",
      "##m ##in",
      "le ##aves",
      "de ##b",
      "t ##ough",
      "l ##a",
      "r ##a",
      "Ch ##e",
      "head ##ph",
      "A ##g",
      "all ##ows",
      "##en ##ing",
      "##it ##or",
      "##ac ##y",
      "l ##ines",
      "se ##qu",
      "I ##N",
      "d ##ream",
      "da ##ily",
      "disc ##over",
      "##w ##ood",
      "str ##ug",
      "man ##ufact",
      "fin ##al",
      "t ##iny",
      "mention ##ed",
      "l ##aptop",
      "li ##m",
      "P ##le",
      "c ##ases",
      "##E ##C",
      "##I ##G",
      "sp ##ray",
      "Aw ##esome",
      "sub ##ject",
      "f ##ish",
      "min ##ute",
      "occ ##as",
      "##p ##or",
      "D ##r",
      "in ##sp",
      "thr ##ow",
      "e ##st",
      "dep ##end",
      "pain ##t",
      "##id ##ge",
      "moder ##n",
      "d ##irt",
      "exper ##ien",
      "r ##ating",
      "bec ##ame",
      "gener ##al",
      "ch ##o",
      "r ##u",
      "thr ##ill",
      "result ##s",
      "B ##y",
      "att ##ack",
      "##li ##er",
      "comm ##un",
      "j ##our",
      "coll ##ect",
      "impro ##ve",
      "##ip ##e",
      "M ##ich",
      "d ##ouble",
      "tr ##ust",
      "ro ##le",
      "s ##our",
      "b ##ath",
      "G ##et",
      "s ##ister",
      "p ##ump",
      "inf ##l",
      "##ret ##ch",
      "j ##ump",
      "##ed ##s",
      "M ##o",
      "##ill ##y",
      "hor ##ri",
      "cir ##c",
      "up ##date",
      "##l ##im",
      "st ##uck",
      "up ##gr",
      "deli ##ver",
      "##A ##Y",
      "##g ##est",
      "summ ##er",
      "##f ##or",
      "lo ##l",
      "##A ##C",
      "##e ##al",
      "other ##wise",
      "conn ##ection",
      "pl ##aces",
      "curr ##ent",
      "##a ##ur",
      "fe ##ll",
      "##ad ##y",
      "a ##verage",
      "bu ##d",
      "br ##ought",
      "f ##ly",
      "b ##en",
      "d ##ish",
      "clear ##ly",
      "w ##ik",
      "vi ##ol",
      "becom ##es",
      "Wh ##o",
      "dis ##play",
      "O ##F",
      "p ##at",
      "G ##r",
      "Bec ##ause",
      "L ##et",
      "sh ##el",
      "mom ##ents",
      "##or ##able",
      "key ##board",
      "fl ##ow",
      "##as ##c",
      "doub ##t",
      "descri ##ption",
      "##ic ##le",
      "bas ##ic",
      "liter ##ally",
      "##if ##y",
      "b ##irth",
      "St ##ar",
      "wond ##er",
      "r ##ide",
      "O ##k",
      "##un ##t",
      "d ##ie",
      "aud ##io",
      "des ##er",
      "wor ##ry",
      "cr ##ed",
      "exc ##ited",
      "P ##C",
      "sur ##face",
      "##r ##es",
      "8 ##0",
      "start ##ing",
      "cl ##oth",
      "run ##s",
      "G ##ot",
      "cont ##roll",
      "##P ##S",
      "product ##ion",
      "##ut ##y",
      "tr ##ad",
      "hist ##or",
      "Look ##s",
      "soft ##ware",
      "ind ##ivid",
      "19 ##9",
      "br ##illi",
      "b ##ri",
      "voc ##als",
      "al ##tern",
      "S ##omet",
      "##in ##er",
      "##A ##L",
      "sell ##er",
      "stra ##p",
      "R ##ed",
      "##E ##M",
      "sh ##it",
      "got ##ten",
      "c ##ant",
      "de ##g",
      "b ##on",
      "ex ##change",
      "d ##iv",
      "F ##its",
      "P ##S",
      "##ch ##an",
      "any ##more",
      "inc ##re",
      "clean ##ing",
      "deli ##very",
      "e ##ss",
      "O ##ut",
      "var ##iety",
      "1 ##7",
      "speak ##ers",
      "##e ##en",
      "##c ##ent",
      "##er ##v",
      "att ##ract",
      "effect ##ive",
      "to ##w",
      "complain ##t",
      "butt ##ons",
      "ro ##ad",
      "##og ##ue",
      "r ##ing",
      "l ##id",
      "imag ##ine",
      "chang ##es",
      "find ##ing",
      "wor ##se",
      "us ##ual",
      "fill ##ed",
      "u ##r",
      "cl ##ip",
      "##r ##op",
      "##ant ##ic",
      "off ##ice",
      "##iv ##al",
      "own ##ed",
      "stor ##age",
      "d ##ate",
      "find ##s",
      "##en ##ed",
      "cons ##ist",
      "m ##edium",
      "fr ##ustr",
      "bul ##bs",
      "appear ##s",
      "up ##on",
      "B ##oth",
      "cab ##les",
      "G ##e",
      "##itt ##y",
      "c ##ult",
      "back ##ground",
      "for ##g",
      "press ##ure"
    ]
  }
}